{
  "version": "1.0",
  "truncation": null,
  "padding": null,
  "added_tokens": [
    {
      "id": 0,
      "content": "<|endoftext|>",
      "single_word": false,
      "lstrip": false,
      "rstrip": false,
      "normalized": false,
      "special": true
    },
    {
      "id": 1,
      "content": "<|user|>",
      "single_word": false,
      "lstrip": false,
      "rstrip": false,
      "normalized": false,
      "special": true
    },
    {
      "id": 2,
      "content": "<|assistant|>",
      "single_word": false,
      "lstrip": false,
      "rstrip": false,
      "normalized": false,
      "special": true
    }
  ],
  "normalizer": null,
  "pre_tokenizer": {
    "type": "ByteLevel",
    "add_prefix_space": false,
    "trim_offsets": true,
    "use_regex": true
  },
  "post_processor": null,
  "decoder": {
    "type": "ByteLevel",
    "add_prefix_space": true,
    "trim_offsets": true,
    "use_regex": true
  },
  "model": {
    "type": "BPE",
    "dropout": null,
    "unk_token": "<|endoftext|>",
    "continuing_subword_prefix": null,
    "end_of_word_suffix": null,
    "fuse_unk": false,
    "byte_fallback": false,
    "ignore_merges": false,
    "vocab": {
      "<|endoftext|>": 0,
      "<|user|>": 1,
      "<|assistant|>": 2,
      "\"": 3,
      "'": 4,
      "*": 5,
      ",": 6,
      "-": 7,
      ".": 8,
      ":": 9,
      ";": 10,
      "<": 11,
      ">": 12,
      "?": 13,
      "A": 14,
      "B": 15,
      "C": 16,
      "D": 17,
      "E": 18,
      "F": 19,
      "G": 20,
      "H": 21,
      "I": 22,
      "K": 23,
      "L": 24,
      "M": 25,
      "N": 26,
      "O": 27,
      "P": 28,
      "R": 29,
      "S": 30,
      "T": 31,
      "U": 32,
      "V": 33,
      "W": 34,
      "Y": 35,
      "a": 36,
      "b": 37,
      "c": 38,
      "d": 39,
      "e": 40,
      "f": 41,
      "g": 42,
      "h": 43,
      "i": 44,
      "j": 45,
      "k": 46,
      "l": 47,
      "m": 48,
      "n": 49,
      "o": 50,
      "p": 51,
      "q": 52,
      "r": 53,
      "s": 54,
      "t": 55,
      "u": 56,
      "v": 57,
      "w": 58,
      "x": 59,
      "y": 60,
      "z": 61,
      "|": 62,
      "~": 63,
      "â": 64,
      "Ċ": 65,
      "Ġ": 66,
      "Ģ": 67,
      "Ķ": 68,
      "Ġt": 69,
      "Ġth": 70,
      "Ġa": 71,
      "Ġthe": 72,
      "in": 73,
      "Ġo": 74,
      "re": 75,
      "at": 76,
      "on": 77,
      "er": 78,
      "en": 79,
      "Ġc": 80,
      "Ġof": 81,
      "Ġs": 82,
      "Ġw": 83,
      "es": 84,
      "is": 85,
      "Ġp": 86,
      "al": 87,
      "it": 88,
      "Ġin": 89,
      "ic": 90,
      "Ġan": 91,
      "Ġm": 92,
      "ion": 93,
      "ed": 94,
      "Ġh": 95,
      "an": 96,
      "Ġb": 97,
      "Ġand": 98,
      "Ġd": 99,
      "or": 100,
      "ou": 101,
      "Ġf": 102,
      "ar": 103,
      "ent": 104,
      "ct": 105,
      "Ġto": 106,
      "ing": 107,
      "le": 108,
      "as": 109,
      "ly": 110,
      "Ġthat": 111,
      "Ġre": 112,
      "om": 113,
      "ve": 114,
      "ce": 115,
      "Ġe": 116,
      "st": 117,
      "Ġwh": 118,
      "Ġn": 119,
      "im": 120,
      "Ġbe": 121,
      "ation": 122,
      "Ġis": 123,
      "se": 124,
      "he": 125,
      "Ġpr": 126,
      "if": 127,
      "ot": 128,
      "Ġit": 129,
      "et": 130,
      "Ġcon": 131,
      "ĠI": 132,
      "pe": 133,
      "The": 134,
      "Ġha": 135,
      "ig": 136,
      "il": 137,
      "ical": 138,
      "id": 139,
      "est": 140,
      "ir": 141,
      "ere": 142,
      "ut": 143,
      "ul": 144,
      "ble": 145,
      "âĢ": 146,
      "ĠâĢ": 147,
      "ĠâĢĶ": 148,
      "act": 149,
      "Ġor": 150,
      "Ġmo": 151,
      "ist": 152,
      "Ġnot": 153,
      "ith": 154,
      "ĠThe": 155,
      "ate": 156,
      "Ġpro": 157,
      "Ġhave": 158,
      "Ġwith": 159,
      "Ġon": 160,
      "ur": 161,
      "ver": 162,
      "Ġl": 163,
      "Ġex": 164,
      "ess": 165,
      "ity": 166,
      "ll": 167,
      "Ġg": 168,
      "cc": 169,
      "ence": 170,
      "ter": 171,
      "ci": 172,
      "Ġfor": 173,
      "ment": 174,
      "Ġcom": 175,
      "Ġu": 176,
      "Ġinv": 177,
      "ra": 178,
      "ow": 179,
      "ys": 180,
      "Ġare": 181,
      "ific": 182,
      "Ġas": 183,
      "nt": 184,
      "qu": 185,
      "Ġhas": 186,
      "Ġspe": 187,
      "Ġsu": 188,
      "ol": 189,
      "ers": 190,
      "Ġv": 191,
      "ch": 192,
      "ive": 193,
      "Ġwho": 194,
      "Ġat": 195,
      "pp": 196,
      "nd": 197,
      "Ġinvest": 198,
      "rim": 199,
      "Ġinvestig": 200,
      "Ġspec": 201,
      "res": 202,
      "Ġde": 203,
      "bs": 204,
      "able": 205,
      "Ġspecific": 206,
      "Ġcrim": 207,
      "ous": 208,
      "Ġtheir": 209,
      "Ġch": 210,
      "Ġr": 211,
      "her": 212,
      "Ġst": 213,
      "ge": 214,
      "Ġfr": 215,
      "our": 216,
      "Ġev": 217,
      "Ġobs": 218,
      "per": 219,
      "ant": 220,
      "ain": 221,
      "um": 222,
      "Ġobser": 223,
      "Ġfrom": 224,
      "ld": 225,
      "Ġthey": 226,
      "Ġwhat": 227,
      "te": 228,
      "Ġmost": 229,
      "Ġcas": 230,
      "ich": 231,
      "Ġwhich": 232,
      "Ġk": 233,
      "ad": 234,
      "Ġle": 235,
      "Ġy": 236,
      "Ġen": 237,
      "ud": 238,
      "ies": 239,
      "iv": 240,
      "od": 241,
      "ill": 242,
      "Ġmy": 243,
      "pl": 244,
      "Ġdo": 245,
      "Ġits": 246,
      "iff": 247,
      "Ġacc": 248,
      "Ġby": 249,
      "Ġpract": 250,
      "ual": 251,
      "out": 252,
      "Ġpers": 253,
      "op": 254,
      "Ġmore": 255,
      "gh": 256,
      "ces": 257,
      "Ġinvestigat": 258,
      "us": 259,
      "ind": 260,
      "ire": 261,
      "ab": 262,
      "inal": 263,
      "Ġgen": 264,
      "for": 265,
      "Ġperson": 266,
      "ough": 267,
      "Ġsom": 268,
      "os": 269,
      "idence": 270,
      "ional": 271,
      "Ġph": 272,
      "Ġwas": 273,
      "ance": 274,
      "cial": 275,
      "Ġthan": 276,
      "Ġdiff": 277,
      "Ġse": 278,
      "Ġapp": 279,
      "ak": 280,
      "ect": 281,
      "Ġcriminal": 282,
      "ari": 283,
      "are": 284,
      "Ġact": 285,
      "Ġthem": 286,
      "art": 287,
      "aract": 288,
      "Ġcharact": 289,
      "Ġphys": 290,
      "Ġbut": 291,
      "Ġne": 292,
      "Ġcons": 293,
      "Ġphysical": 294,
      "Ġres": 295,
      "Ġdis": 296,
      "Ġcharacter": 297,
      "og": 298,
      "du": 299,
      "and": 300,
      "Ġme": 301,
      "li": 302,
      "Ġpart": 303,
      "Ġal": 304,
      "Ġim": 305,
      "au": 306,
      "ail": 307,
      "am": 308,
      "Ġso": 309,
      "ause": 310,
      "Ġany": 311,
      "Ġman": 312,
      "Ġevidence": 313,
      "Ġte": 314,
      "Ġall": 315,
      "now": 316,
      "ular": 317,
      "ure": 318,
      "Ġcomp": 319,
      "ore": 320,
      "ish": 321,
      "Ġbec": 322,
      "form": 323,
      "eth": 324,
      "ine": 325,
      "ise": 326,
      "Ġdist": 327,
      "Ġobserv": 328,
      "ay": 329,
      "ose": 330,
      "ort": 331,
      "em": 332,
      "ult": 333,
      "ations": 334,
      "Ġwill": 335,
      "Ġdiffere": 336,
      "ions": 337,
      "end": 338,
      "Ġbeen": 339,
      "Ġinform": 340,
      "ould": 341,
      "Ġocc": 342,
      "ound": 343,
      "Ġbecause": 344,
      "Ġrec": 345,
      "Ġcan": 346,
      "Ġknow": 347,
      "ated": 348,
      "Ġinter": 349,
      "ace": 350,
      "Ġcases": 351,
      "led": 352,
      "ri": 353,
      "Ġpre": 354,
      "Ġone": 355,
      "ten": 356,
      "Ġdet": 357,
      "ays": 358,
      "Ġsy": 359,
      "Ġcomm": 360,
      "Ġqu": 361,
      "Ġvari": 362,
      "Ġdifferent": 363,
      "Ġwor": 364,
      "Ġtra": 365,
      "'s": 366,
      "Ġty": 367,
      "tain": 368,
      "ond": 369,
      "ru": 370,
      "ident": 371,
      "Ġinvestigator": 372,
      "igh": 373,
      "Ġab": 374,
      "Ġpractical": 375,
      "Ġdes": 376,
      "ary": 377,
      "Ġthis": 378,
      "Ġint": 379,
      "Ġthese": 380,
      "stem": 381,
      "ici": 382,
      "Ġread": 383,
      "ff": 384,
      "Ġund": 385,
      "Ġsystem": 386,
      "ather": 387,
      "ppe": 388,
      "ction": 389,
      "Ġyou": 390,
      "Ġcont": 391,
      "pt": 392,
      "ible": 393,
      "Ġsub": 394,
      "Ġad": 395,
      "ility": 396,
      "atter": 397,
      "<|": 398,
      "|>": 399,
      "Ġsocial": 400,
      "ach": 401,
      "pect": 402,
      "Ġprodu": 403,
      "Ġent": 404,
      "ppear": 405,
      "ĠT": 406,
      "icular": 407,
      "Ġparticular": 408,
      "very": 409,
      "port": 410,
      "istic": 411,
      "Ġhad": 412,
      "ice": 413,
      "fess": 414,
      "Ġprofess": 415,
      "Ġgener": 416,
      "Ġmeth": 417,
      "Ġmethod": 418,
      "ust": 419,
      "ĠW": 420,
      "atic": 421,
      "Ġabout": 422,
      "Ġpres": 423,
      "Ġbet": 424,
      "xt": 425,
      "Ġem": 426,
      "Ġsome": 427,
      "Ġinformation": 428,
      "son": 429,
      "Ġtr": 430,
      "Ġser": 431,
      "Ġpl": 432,
      "ents": 433,
      "Ġwould": 434,
      "reet": 435,
      "ro": 436,
      "Ġar": 437,
      "ledge": 438,
      "uth": 439,
      "Ġwere": 440,
      "cu": 441,
      "uine": 442,
      "Ġgenuine": 443,
      "Ġrather": 444,
      "we": 445,
      "ount": 446,
      "Ġgeneral": 447,
      "ass": 448,
      "Ġprofessional": 449,
      "ĠA": 450,
      "erest": 451,
      "tical": 452,
      "ight": 453,
      "Ġunder": 454,
      "ok": 455,
      "ined": 456,
      "Ġinte": 457,
      "Ġhis": 458,
      "Ġun": 459,
      "sel": 460,
      "Ġpur": 461,
      "Ġprin": 462,
      "blem": 463,
      "Ġproblem": 464,
      "Ġrequ": 465,
      "Ġam": 466,
      "Ġper": 467,
      "Ġcomple": 468,
      "Ġcl": 469,
      "Ġwe": 470,
      "ently": 471,
      "Ġcare": 472,
      "Ġfound": 473,
      "Ġhe": 474,
      "ĠTh": 475,
      "fore": 476,
      "Ġsc": 477,
      "Ġobservation": 478,
      "cument": 479,
      "vel": 480,
      "th": 481,
      "Ġwork": 482,
      "Ġsystematic": 483,
      "Ġdocument": 484,
      "Ġform": 485,
      "Ġknowledge": 486,
      "age": 487,
      "Ġstud": 488,
      "ict": 489,
      "ory": 490,
      "rough": 491,
      "Ġind": 492,
      "Ġpo": 493,
      "Ġident": 494,
      "Ġanal": 495,
      "one": 496,
      "Ġconsid": 497,
      "Ġdire": 498,
      "Ġwithout": 499,
      "Ġbetwe": 500,
      "Ġbetween": 501,
      "Ġexper": 502,
      "pr": 503,
      "atson": 504,
      "ag": 505,
      "Ġinvestigation": 506,
      "un": 507,
      "ĠH": 508,
      "ition": 509,
      "pon": 510,
      "ious": 511,
      "ced": 512,
      "ject": 513,
      "med": 514,
      "Ġcharacteristic": 515,
      "Ġwhere": 516,
      "ret": 517,
      "ther": 518,
      "Ġnat": 519,
      "Ġord": 520,
      "ress": 521,
      "vant": 522,
      "Ġinterest": 523,
      "Ġpos": 524,
      "ful": 525,
      "wn": 526,
      "Ġtim": 527,
      "Ġown": 528,
      "ities": 529,
      "Ġdirect": 530,
      "ĠWatson": 531,
      "ie": 532,
      "Ġcase": 533,
      "Ġmak": 534,
      "Ġsh": 535,
      "Ġ<|": 536,
      "ves": 537,
      "ang": 538,
      "Ġconsider": 539,
      "ook": 540,
      "ard": 541,
      "hem": 542,
      "Ġoper": 543,
      "Ġprinci": 544,
      "Ġcrime": 545,
      "ong": 546,
      "medi": 547,
      "Ġcity": 548,
      "Ġinvestigative": 549,
      "ft": 550,
      "Ġhum": 551,
      "Ġoccas": 552,
      "Ġhuman": 553,
      "Ġobserver": 554,
      "cess": 555,
      "Ġtime": 556,
      "lish": 557,
      "Ġthough": 558,
      "reat": 559,
      "pret": 560,
      "Ġinterpret": 561,
      "Ġtruth": 562,
      "ways": 563,
      "Ġthrough": 564,
      "Ġav": 565,
      "llig": 566,
      "Ġtyp": 567,
      "Ġother": 568,
      "Ġappear": 569,
      "rib": 570,
      "chn": 571,
      "Ġtechn": 572,
      "Ġsim": 573,
      "Ġhand": 574,
      "el": 575,
      "Ġonly": 576,
      "Ġimmedi": 577,
      "Ġimmediate": 578,
      "ertain": 579,
      "Ġout": 580,
      "cy": 581,
      "Ġover": 582,
      "oom": 583,
      "Ġthere": 584,
      "Ġroom": 585,
      "ings": 586,
      "inary": 587,
      "Ġstreet": 588,
      "Ġpurp": 589,
      "Ġalways": 590,
      "Ġag": 591,
      "Ġavail": 592,
      "Ġno": 593,
      "Ġrel": 594,
      "Ġqual": 595,
      "Ġbefore": 596,
      "Ġinst": 597,
      "Ġconc": 598,
      "Ġdeg": 599,
      "ĠL": 600,
      "Ġintellig": 601,
      "Ġaccount": 602,
      "Ġco": 603,
      "ments": 604,
      "text": 605,
      "Ġfra": 606,
      "Ġconsist": 607,
      "ically": 608,
      "lect": 609,
      "Ġless": 610,
      "rap": 611,
      "Ġstudy": 612,
      "Ġactiv": 613,
      "ap": 614,
      "Ġdetail": 615,
      "ination": 616,
      "eop": 617,
      "eople": 618,
      "ondon": 619,
      "ĠLondon": 620,
      "Ġext": 621,
      "Ġpractice": 622,
      "Ġtype": 623,
      "Ġappro": 624,
      "Ġfir": 625,
      "ĠB": 626,
      "ene": 627,
      "Ġref": 628,
      "arent": 629,
      "Ġavailable": 630,
      "Ġvarious": 631,
      "Ġsus": 632,
      "int": 633,
      "ens": 634,
      "Ġactual": 635,
      "Ġprec": 636,
      "nce": 637,
      "imate": 638,
      "ars": 639,
      "oth": 640,
      "Ġconst": 641,
      "Ġleg": 642,
      "Ġmind": 643,
      "Ġidentif": 644,
      "ial": 645,
      "Ġexpl": 646,
      "Ġreg": 647,
      "Ġarr": 648,
      "Ġkind": 649,
      "Ġpeople": 650,
      "velop": 651,
      "Ġareas": 652,
      "Ġnew": 653,
      "Ġexam": 654,
      "Ġposs": 655,
      "ip": 656,
      "ree": 657,
      "Ġac": 658,
      "red": 659,
      "Ġfe": 660,
      "ously": 661,
      "Ġpresent": 662,
      "ness": 663,
      "Ġdevelop": 664,
      "Ġdesc": 665,
      "Ġapproach": 666,
      "Ġfirst": 667,
      "ved": 668,
      "ative": 669,
      "Ġfo": 670,
      "etim": 671,
      "Ġoften": 672,
      "ame": 673,
      "ord": 674,
      "ances": 675,
      "ign": 676,
      "Ġsuff": 677,
      "Ġsometh": 678,
      "Ġsomething": 679,
      "Ġthose": 680,
      "Ġcondu": 681,
      "Ġordinary": 682,
      "Ġemot": 683,
      "Ġconf": 684,
      "ĠThis": 685,
      "Ġeng": 686,
      "ber": 687,
      "Ġass": 688,
      "Ġemotional": 689,
      "Ġtrained": 690,
      "itt": 691,
      "Ġintelligence": 692,
      "Ġmatter": 693,
      "Ġcharacteristics": 694,
      "rit": 695,
      "stances": 696,
      "Ġwhen": 697,
      "Ġoccur": 698,
      "all": 699,
      "ide": 700,
      "ĠS": 701,
      "Ġcate": 702,
      "Ġdisc": 703,
      "Ġcateg": 704,
      "Ġfact": 705,
      "Ġhow": 706,
      "Ġcomplex": 707,
      "Ġtypes": 708,
      "Ġtheore": 709,
      "Ġtheoretical": 710,
      "av": 711,
      "Ġabs": 712,
      "Ġpatter": 713,
      "Ġpattern": 714,
      "Ġmust": 715,
      "anis": 716,
      "etimes": 717,
      "ears": 718,
      "Ġyears": 719,
      "Ġapparent": 720,
      "Ġsubject": 721,
      "Ġtell": 722,
      "olog": 723,
      "Ġentire": 724,
      "cum": 725,
      "Ġcir": 726,
      "Ġcircum": 727,
      "self": 728,
      "ast": 729,
      "Ġcor": 730,
      "Ġrep": 731,
      "Ġchem": 732,
      "Ġsometimes": 733,
      "Ġmain": 734,
      "Ġexp": 735,
      "Ġdistr": 736,
      "Ġobserved": 737,
      "Ġquest": 738,
      "Ġpu": 739,
      "bit": 740,
      "Ġj": 741,
      "Ġfind": 742,
      "ĠM": 743,
      "ade": 744,
      "Ġdeter": 745,
      "Ġscene": 746,
      "Ġprecise": 747,
      "Ġleft": 748,
      "ograp": 749,
      "Ġpurpose": 750,
      "ograph": 751,
      "Ġtest": 752,
      "Ġoperat": 753,
      "Ġsur": 754,
      "Ġdem": 755,
      "Ġdisa": 756,
      "Ġentirely": 757,
      "Ġhabit": 758,
      "Ġrequire": 759,
      "Ġcircumstances": 760,
      "ency": 761,
      "Ġmade": 762,
      "ulation": 763,
      "ably": 764,
      "arr": 765,
      "Ġorg": 766,
      "Ġdistrict": 767,
      "ue": 768,
      "Ġtak": 769,
      "Ġconsistent": 770,
      "ans": 771,
      "Ġquality": 772,
      "ories": 773,
      "Ġyour": 774,
      "Ġtraces": 775,
      "Ġaccur": 776,
      "Ġbeh": 777,
      "Ġconduct": 778,
      "Ġmere": 779,
      "Ġbr": 780,
      "Ġimport": 781,
      "Ġmerely": 782,
      "Ġanx": 783,
      "Ġuse": 784,
      "uish": 785,
      "vir": 786,
      "inguish": 787,
      "Ġenvir": 788,
      "Ġdistinguish": 789,
      "Ġidentify": 790,
      "Ġenviron": 791,
      "Ġvis": 792,
      "Ġcle": 793,
      "hip": 794,
      "Ġmay": 795,
      "Ġcareful": 796,
      "Ġconce": 797,
      "Ġevery": 798,
      "ution": 799,
      "Ġcategories": 800,
      "Ġcol": 801,
      "itimate": 802,
      "Ġupon": 803,
      "Ġlar": 804,
      "Ġresult": 805,
      "Ġmany": 806,
      "Ġvariet": 807,
      "Ġconsiderable": 808,
      "ives": 809,
      "Ġenter": 810,
      "ytical": 811,
      "Ġanalytical": 812,
      "lished": 813,
      "Ġsame": 814,
      "Ġcertain": 815,
      "Ġtw": 816,
      "Ġforg": 817,
      "ffect": 818,
      "Ġnature": 819,
      "levant": 820,
      "Ġnever": 821,
      "arily": 822,
      "Ġorganis": 823,
      "Ġatt": 824,
      "ples": 825,
      "Ġdescrib": 826,
      "ty": 827,
      "gest": 828,
      "Ġface": 829,
      "Ġlook": 830,
      "ires": 831,
      "Ġoff": 832,
      "rop": 833,
      "Ġsit": 834,
      "stand": 835,
      "Ġcontin": 836,
      "Ġdegree": 837,
      "Ġcour": 838,
      "Ġways": 839,
      "ally": 840,
      "ysis": 841,
      "Ġanalysis": 842,
      "ense": 843,
      "Ġvery": 844,
      "Ġpossible": 845,
      "Ġdisappear": 846,
      "Ġcond": 847,
      "Ġhour": 848,
      "Ġimportant": 849,
      "Ġaccum": 850,
      "Ġfraud": 851,
      "ood": 852,
      "iness": 853,
      "Ġplace": 854,
      "here": 855,
      "ife": 856,
      "Ġproduced": 857,
      "ether": 858,
      "oc": 859,
      "Ġob": 860,
      "Ġrequires": 861,
      "ationship": 862,
      "Ġrelationship": 863,
      "Ġsign": 864,
      "Ġreli": 865,
      "ification": 866,
      "Ġpoint": 867,
      "of": 868,
      "sequ": 869,
      "Ġgreat": 870,
      "Ġthemsel": 871,
      "Ġchemical": 872,
      "Ġthemselves": 873,
      "Ġsk": 874,
      "Ġmaintain": 875,
      "Ġprocess": 876,
      "Ġactive": 877,
      "Ġprincip": 878,
      "Ġhim": 879,
      "Ġsuspect": 880,
      "Ġtwo": 881,
      "Ġfam": 882,
      "ince": 883,
      "Ġsince": 884,
      "ruct": 885,
      "ience": 886,
      "Ġrecently": 887,
      "Ġopp": 888,
      "Ġsupp": 889,
      "Ġcommon": 890,
      "arly": 891,
      "ants": 892,
      "iven": 893,
      "ors": 894,
      "urn": 895,
      "Ġcomb": 896,
      "Ġstreets": 897,
      "Ġut": 898,
      "ason": 899,
      "Ġutility": 900,
      "Ġdescribed": 901,
      "Ġimp": 902,
      "ability": 903,
      "ange": 904,
      "ep": 905,
      "Ġdoes": 906,
      "fort": 907,
      "Ġunderstand": 908,
      "Ġrelevant": 909,
      "Ġcli": 910,
      "itions": 911,
      "istant": 912,
      "user": 913,
      "endof": 914,
      "assistant": 915,
      "endoftext": 916,
      "ac": 917,
      "ner": 918,
      "cond": 919,
      "not": 920,
      "Ġest": 921,
      "Ġcannot": 922,
      "ost": 923,
      "orm": 924,
      "Ġeffect": 925,
      "Ġgenuinely": 926,
      "cept": 927,
      "Ġbeing": 928,
      "Ġeven": 929,
      "Ġconcl": 930,
      "Ġdisappearance": 931,
      "Ġnatur": 932,
      "Ġenvironment": 933,
      "Ġreading": 934,
      "Ġcrimes": 935,
      "Ġattent": 936,
      "Ġpub": 937,
      "Ġcommun": 938,
      "Ġinvol": 939,
      "Ġsol": 940,
      "Ġitself": 941,
      "icial": 942,
      "Ġdeli": 943,
      "Ġoccasion": 944,
      "Ġprecisely": 945,
      "Ġtext": 946,
      "Ġactivities": 947,
      "Ġimmediately": 948,
      "Ġcontinu": 949,
      "Ġwrit": 950,
      "Ġallow": 951,
      "Ġskill": 952,
      "me": 953,
      "hat": 954,
      "Ġsee": 955,
      "Ġdeterm": 956,
      "iar": 957,
      "Ġway": 958,
      "Ġmis": 959,
      "Ġfail": 960,
      "Ġdisco": 961,
      "Ġexperim": 962,
      "Ġlegitimate": 963,
      "ences": 964,
      "Ġmet": 965,
      "Ġfog": 966,
      "Ġreason": 967,
      "treet": 968,
      "Ġtend": 969,
      "aker": 970,
      "Ġinteresting": 971,
      "ĠBaker": 972,
      "ĠStreet": 973,
      "Ġenterpr": 974,
      "Ġprinciples": 975,
      "Ġwhether": 976,
      "Ġbeli": 977,
      "Ġbelie": 978,
      "ily": 979,
      "Ġconceal": 980,
      "ĠC": 981,
      "Ġestab": 982,
      "ile": 983,
      "itut": 984,
      "Ġeach": 985,
      "Ġsuffici": 986,
      "air": 987,
      "onst": 988,
      "Ġsubsequ": 989,
      "Ġmight": 990,
      "Ġserious": 991,
      "Ġaccurate": 992,
      "Ġif": 993,
      "icult": 994,
      "Ġdifficult": 995,
      "Ġforger": 996,
      "tem": 997,
      "Ġactually": 998,
      "lection": 999,
      "Ġreal": 1000,
      "Ġconditions": 1001,
      "Ġsp": 1002,
      "Ġwhile": 1003,
      "Ġcomplete": 1004,
      "ures": 1005,
      "Ġbus": 1006,
      "Ġbusiness": 1007,
      "iol": 1008,
      "Ġviol": 1009,
      "Ġval": 1010,
      "Ġquestion": 1011,
      "Ġcommunic": 1012,
      "Ġsecond": 1013,
      "Ġfin": 1014,
      "Ġele": 1015,
      "Ġattem": 1016,
      "Ġrespon": 1017,
      "Ġhours": 1018,
      "Ġattempt": 1019,
      "rect": 1020,
      "Ġcorrect": 1021,
      "Ġins": 1022,
      "Ġful": 1023,
      "Ġrespect": 1024,
      "Ġset": 1025,
      "osition": 1026,
      "Ġdetails": 1027,
      "Ġclient": 1028,
      "llect": 1029,
      "Ġsa": 1030,
      "erence": 1031,
      "oses": 1032,
      "Ġintellect": 1033,
      "ever": 1034,
      "Ġlife": 1035,
      "Ġhowever": 1036,
      "Ġresour": 1037,
      "mes": 1038,
      "olmes": 1039,
      "ĠHolmes": 1040,
      "Ġus": 1041,
      "Ġhy": 1042,
      "Ġinc": 1043,
      "ered": 1044,
      "und": 1045,
      "Ġmat": 1046,
      "Ġproduce": 1047,
      "Ġsitu": 1048,
      "Ġir": 1049,
      "arm": 1050,
      "ĠIn": 1051,
      "Ġworld": 1052,
      "Ġgiven": 1053,
      "Ġdesk": 1054,
      "Ġwell": 1055,
      "Ġfully": 1056,
      "acc": 1057,
      "iqu": 1058,
      "ential": 1059,
      "Ġtechniqu": 1060,
      "Ġcomplexity": 1061,
      "ining": 1062,
      "Ġsci": 1063,
      "Ġbook": 1064,
      "Ġproblems": 1065,
      "Ġdistricts": 1066,
      "Ġenterprise": 1067,
      "Ġaccounts": 1068,
      "Ġec": 1069,
      "Ġwhose": 1070,
      "Ġrecord": 1071,
      "iod": 1072,
      "Ġperiod": 1073,
      "ates": 1074,
      "Ġconv": 1075,
      "ither": 1076,
      "aces": 1077,
      "ib": 1078,
      "ath": 1079,
      "Ġwal": 1080,
      "Ġneed": 1081,
      "Ġalter": 1082,
      "Ġexperience": 1083,
      "Ġmake": 1084,
      "Ġwalk": 1085,
      "als": 1086,
      "ited": 1087,
      "ingly": 1088,
      "iliar": 1089,
      "Ġexpect": 1090,
      "Ġenc": 1091,
      "Ġofficial": 1092,
      "Ġauth": 1093,
      "plic": 1094,
      "Ġdistin": 1095,
      "Ġjud": 1096,
      "Ġbehav": 1097,
      "Ġtaken": 1098,
      "atis": 1099,
      "atisf": 1100,
      "ied": 1101,
      "Ġcome": 1102,
      "Ġconsci": 1103,
      "riate": 1104,
      "Ġrequired": 1105,
      "ropriate": 1106,
      "Ġinf": 1107,
      "Ġproper": 1108,
      "Ġfamiliar": 1109,
      "Ġnatural": 1110,
      "ulated": 1111,
      "agement": 1112,
      "ages": 1113,
      "reg": 1114,
      "Ġnum": 1115,
      "aged": 1116,
      "Ġthought": 1117,
      "Ġapparently": 1118,
      "ological": 1119,
      "Ġtechnical": 1120,
      "Ġattention": 1121,
      "Ġmethods": 1122,
      "iour": 1123,
      "Ġexamination": 1124,
      "Ġbehaviour": 1125,
      "Ġpa": 1126,
      "ancial": 1127,
      "Ġlevel": 1128,
      "Ġfinancial": 1129,
      "Ġnorm": 1130,
      "Ġsatisf": 1131,
      "Ġrepres": 1132,
      "Ġreflect": 1133,
      "ĠThey": 1134,
      "Ġdetect": 1135,
      "Ġmakes": 1136,
      "Ġactivity": 1137,
      "Ġexpress": 1138,
      "Ġwritten": 1139,
      "ract": 1140,
      "tici": 1141,
      "Ġantici": 1142,
      "Ġcommitt": 1143,
      "Ġvariety": 1144,
      "Ġsubsequent": 1145,
      "Ġintellectual": 1146,
      "Ġanticip": 1147,
      "Ġcommitted": 1148,
      "lic": 1149,
      "Ġcriminals": 1150,
      "Ġnarr": 1151,
      "ry": 1152,
      "Ġobject": 1153,
      "Ġwithin": 1154,
      "ĠMr": 1155,
      "par": 1156,
      "Ġfie": 1157,
      "anged": 1158,
      "Ġfield": 1159,
      "Ġconclus": 1160,
      "up": 1161,
      "Ġold": 1162,
      "Ġoccup": 1163,
      "Ġinto": 1164,
      "Ġagain": 1165,
      "bacc": 1166,
      "Ġcre": 1167,
      "Ġtobacc": 1168,
      "Ġinterpretation": 1169,
      "Ġfoot": 1170,
      "ography": 1171,
      "Ġvisual": 1172,
      "Ġcollection": 1173,
      "Ġexperiments": 1174,
      "Ġinterse": 1175,
      "Ġanxious": 1176,
      "Ġsufficient": 1177,
      "ex": 1178,
      "Ġsound": 1179,
      "Ġup": 1180,
      "tens": 1181,
      "Ġextract": 1182,
      "Ġscience": 1183,
      "wor": 1184,
      "Ġmor": 1185,
      "Ġreport": 1186,
      "inter": 1187,
      "Ġwinter": 1188,
      "Ġshe": 1189,
      "Ġshould": 1190,
      "ior": 1191,
      "most": 1192,
      "Ġer": 1193,
      "Ġpass": 1194,
      "Ġmu": 1195,
      "Ġalmost": 1196,
      "Ġcourse": 1197,
      "Ġreliable": 1198,
      "ating": 1199,
      "ising": 1200,
      "Ġboth": 1201,
      "uring": 1202,
      "Ġenough": 1203,
      "Ġamong": 1204,
      "ark": 1205,
      "Ġadd": 1206,
      "anger": 1207,
      "Ġadv": 1208,
      "Ġhist": 1209,
      "thing": 1210,
      "Ġsimil": 1211,
      "Ġfre": 1212,
      "Ġseen": 1213,
      "Ġask": 1214,
      "hab": 1215,
      "Ġcause": 1216,
      "Ġink": 1217,
      "Ġinhab": 1218,
      "Ġappropriate": 1219,
      "Ġcontro": 1220,
      "Ġmiss": 1221,
      "Ġcontroll": 1222,
      "ric": 1223,
      "Ġment": 1224,
      "Ġfab": 1225,
      "llow": 1226,
      "Ġregular": 1227,
      "Ġregard": 1228,
      "Ġfabric": 1229,
      "Ġlong": 1230,
      "Ġtherefore": 1231,
      "Ġjudge": 1232,
      "Ġnumber": 1233,
      "Ġcould": 1234,
      "Ġdanger": 1235,
      "Ġinstru": 1236,
      "Ġabsence": 1237,
      "Ġdemand": 1238,
      "Ġrece": 1239,
      "Ġindic": 1240,
      "berate": 1241,
      "Ġdeliberate": 1242,
      "usual": 1243,
      "Ġpresence": 1244,
      "Ġunusual": 1245,
      "Ġappears": 1246,
      "Ġhabits": 1247,
      "ite": 1248,
      "Ġhon": 1249,
      "Ġprim": 1250,
      "Ġsuch": 1251,
      "fect": 1252,
      "gu": 1253,
      "ke": 1254,
      "oy": 1255,
      "side": 1256,
      "Ġmod": 1257,
      "Ġcomposition": 1258,
      "Ġappearance": 1259,
      "pond": 1260,
      "ying": 1261,
      "Ġsm": 1262,
      "Ġmon": 1263,
      "vement": 1264,
      "ĠIt": 1265,
      "Ġprov": 1266,
      "Ġexplo": 1267,
      "Ġfeat": 1268,
      "Ġprincipal": 1269,
      "ning": 1270,
      "Ġess": 1271,
      "Ġgood": 1272,
      "Ġspecial": 1273,
      "Ġessential": 1274,
      "Ġthor": 1275,
      "Ġsomew": 1276,
      "Ġresources": 1277,
      "regular": 1278,
      "Ġthorough": 1279,
      "Ġdra": 1280,
      "Ġdram": 1281,
      "Ġagents": 1282,
      "Ġpublished": 1283,
      "Ġvalue": 1284,
      "aim": 1285,
      "Ġclaim": 1286,
      "Ġsomeone": 1287,
      "poth": 1288,
      "Ġhypoth": 1289,
      "Ġhypothes": 1290,
      "Ġmeans": 1291,
      "ack": 1292,
      "ne": 1293,
      "Ġtru": 1294,
      "ane": 1295,
      "ild": 1296,
      "Ġdep": 1297,
      "Ġlea": 1298,
      "ering": 1299,
      "ese": 1300,
      "Ġearly": 1301,
      "ĠThese": 1302,
      "Ġsignific": 1303,
      "Ġelements": 1304,
      "Ġresponse": 1305,
      "iet": 1306,
      "ĠE": 1307,
      "Ġdom": 1308,
      "Ġagainst": 1309,
      "lf": 1310,
      "Ġvol": 1311,
      "ploy": 1312,
      "Ġdisgu": 1313,
      "Ġemploy": 1314,
      "Ġperfect": 1315,
      "Ġclear": 1316,
      "Ġlargest": 1317,
      "Ġdiscover": 1318,
      "Ġbooks": 1319,
      "Ġtobacco": 1320,
      "Ġdisguise": 1321,
      "ward": 1322,
      "ercial": 1323,
      "Ġappli": 1324,
      "Ġcommercial": 1325,
      "Ġdeveloped": 1326,
      "Ġoperating": 1327,
      "Ġresults": 1328,
      "Ġaccumulated": 1329,
      "Ġviolin": 1330,
      "Ġtechniques": 1331,
      "Ġfeatures": 1332,
      "Ġapplied": 1333,
      "Ġinvestigators": 1334,
      "Ġcareer": 1335,
      "Ġprocesses": 1336,
      "Ġlead": 1337,
      "Ġserve": 1338,
      "work": 1339,
      "Ġdesper": 1340,
      "Ġstate": 1341,
      "sem": 1342,
      "Ġhistory": 1343,
      "ome": 1344,
      "Ġdocuments": 1345,
      "Ġposition": 1346,
      "arch": 1347,
      "urb": 1348,
      "Ġpost": 1349,
      "Ġsuffering": 1350,
      "Ġdeal": 1351,
      "Ġorder": 1352,
      "Ġeffective": 1353,
      "Ġmuch": 1354,
      "Ġwish": 1355,
      "Ġcontext": 1356,
      "Ġhapp": 1357,
      "ortun": 1358,
      "Ġdemonst": 1359,
      "Ġopportun": 1360,
      "Ġdemonstr": 1361,
      "den": 1362,
      "Ġcap": 1363,
      "Ġdays": 1364,
      "Ġbeg": 1365,
      "ibility": 1366,
      "ouse": 1367,
      "Ġbelieve": 1368,
      "Ġmanner": 1369,
      "Ġconsiderably": 1370,
      "Ġsimilar": 1371,
      "know": 1372,
      "Ġthings": 1373,
      "Ġpol": 1374,
      "Ġke": 1375,
      "Ġfrequ": 1376,
      "nal": 1377,
      "Ġadm": 1378,
      "ient": 1379,
      "Ġaw": 1380,
      "ink": 1381,
      "erate": 1382,
      "Ġreve": 1383,
      "odu": 1384,
      "Ġaccident": 1385,
      "Ġinformative": 1386,
      "Ġprint": 1387,
      "Ġmaking": 1388,
      "Ġfeel": 1389,
      "Ġanxiet": 1390,
      "Ġdistinguishing": 1391,
      "Ġwalked": 1392,
      "Ġinhabit": 1393,
      "Ġcontrolled": 1394,
      "Ġaf": 1395,
      "oun": 1396,
      "Ġfund": 1397,
      "ctive": 1398,
      "Ġlim": 1399,
      "quir": 1400,
      "Ġinterv": 1401,
      "Ġart": 1402,
      "Ġclose": 1403,
      "Ġclass": 1404,
      "Ġschem": 1405,
      "ribut": 1406,
      "Ġconstitut": 1407,
      "Ġfollow": 1408,
      "Ġpatterns": 1409,
      "Ġduring": 1410,
      "Ġnecess": 1411,
      "Ġdevelopment": 1412,
      "Ġhappen": 1413,
      "histic": 1414,
      "ned": 1415,
      "Ġill": 1416,
      "Ġsop": 1417,
      "alth": 1418,
      "ster": 1419,
      "Ġoccasional": 1420,
      "Ġsophistic": 1421,
      "inc": 1422,
      "ĠN": 1423,
      "ggest": 1424,
      "Ġsuggest": 1425,
      "iend": 1426,
      "ision": 1427,
      "Ġfriend": 1428,
      "ived": 1429,
      "ared": 1430,
      "Ġunc": 1431,
      "Ġlegal": 1432,
      "other": 1433,
      "Ġnormal": 1434,
      "Ġfrequency": 1435,
      "ell": 1436,
      "Ġexist": 1437,
      "ually": 1438,
      "Ġhonest": 1439,
      "mp": 1440,
      "isation": 1441,
      "itation": 1442,
      "Ġmed": 1443,
      "Ġmus": 1444,
      "Ġlab": 1445,
      "Ġrecent": 1446,
      "produ": 1447,
      "Ġrooms": 1448,
      "Ġacqu": 1449,
      "Ġcolour": 1450,
      "Ġaccumulation": 1451,
      "Ġfailure": 1452,
      "Ġspace": 1453,
      "Ġreflects": 1454,
      "Ġposture": 1455,
      "ament": 1456,
      "acy": 1457,
      "atory": 1458,
      "Ġrem": 1459,
      "Ġones": 1460,
      "Ġlog": 1461,
      "respond": 1462,
      "Ġgenerally": 1463,
      "Ġfoundation": 1464,
      "Ġsimp": 1465,
      "Ġdetailed": 1466,
      "Ġcorrespond": 1467,
      "Ġbring": 1468,
      "Ġgreater": 1469,
      "Ġsatisfying": 1470,
      "Ġanticipated": 1471,
      "Ġmental": 1472,
      "Ġsmall": 1473,
      "ounter": 1474,
      "ators": 1475,
      "Ġadvant": 1476,
      "Ġengagement": 1477,
      "Ġoccurs": 1478,
      "Ġuseful": 1479,
      "Ġlarge": 1480,
      "Ġirregular": 1481,
      "Ġadvance": 1482,
      "Ġjudgement": 1483,
      "Ġsomewhat": 1484,
      "Ġpop": 1485,
      "Ġhig": 1486,
      "Ġemb": 1487,
      "Ġhigher": 1488,
      "Ġunderest": 1489,
      "ology": 1490,
      "Ġsaw": 1491,
      "Ġher": 1492,
      "Ġprob": 1493,
      "sw": 1494,
      "Ġver": 1495,
      "Ġansw": 1496,
      "Ġquestions": 1497,
      "ceed": 1498,
      "Ġeither": 1499,
      "ons": 1500,
      "Ġevents": 1501,
      "Ġweight": 1502,
      "Ġrepresent": 1503,
      "ĠO": 1504,
      "Ġach": 1505,
      "Ġdef": 1506,
      "iew": 1507,
      "Ġoutside": 1508,
      "Ġconstruct": 1509,
      "Ġestablished": 1510,
      "Ġachie": 1511,
      "acial": 1512,
      "ier": 1513,
      "Ġtense": 1514,
      "Ġthink": 1515,
      "Ġmone": 1516,
      "Ġhier": 1517,
      "Ġburn": 1518,
      "oul": 1519,
      "Ġfoul": 1520,
      "entr": 1521,
      "omfort": 1522,
      "stri": 1523,
      "idences": 1524,
      "ists": 1525,
      "ĠThere": 1526,
      "Ġge": 1527,
      "rad": 1528,
      "Ġspeak": 1529,
      "Ġrig": 1530,
      "Ġevidences": 1531,
      "umerate": 1532,
      "Ġenumerate": 1533,
      "orth": 1534,
      "ended": 1535,
      "ustion": 1536,
      "Ġserved": 1537,
      "Ġplay": 1538,
      "Ġworks": 1539,
      "Ġidentification": 1540,
      "Ġoccasions": 1541,
      "Ġqualities": 1542,
      "Ġconcentr": 1543,
      "Ġarrives": 1544,
      "Ġarranged": 1545,
      "Ġvarieties": 1546,
      "Ġcombustion": 1547,
      "ĠCertain": 1548,
      "Ġcreation": 1549,
      "Ġmonograph": 1550,
      "Ġmoney": 1551,
      "Ġhierarch": 1552,
      "ata": 1553,
      "Ġinex": 1554,
      "Ġdata": 1555,
      "cts": 1556,
      "Ġextens": 1557,
      "Ġlear": 1558,
      "udson": 1559,
      "Ġseem": 1560,
      "Ġplan": 1561,
      "Ġworking": 1562,
      "ĠHudson": 1563,
      "Ġoperations": 1564,
      "Ġtypically": 1565,
      "Ġpurposes": 1566,
      "Ġconfidence": 1567,
      "itting": 1568,
      "Ġorganisation": 1569,
      "herent": 1570,
      "ĠMrs": 1571,
      "Ġolder": 1572,
      "Ġintersection": 1573,
      "Ġfundament": 1574,
      "Ġbrough": 1575,
      "Ġcontent": 1576,
      "Ġstudent": 1577,
      "ressed": 1578,
      "Ġframe": 1579,
      "Ġbehind": 1580,
      "Ġvisible": 1581,
      "Ġprinciple": 1582,
      "Ġtendency": 1583,
      "Ġbrought": 1584,
      "Ġframework": 1585,
      "zon": 1586,
      "Ġzon": 1587,
      "onom": 1588,
      "Ġrecur": 1589,
      "Ġdesperate": 1590,
      "Ġzones": 1591,
      "onomic": 1592,
      "Ġinformants": 1593,
      "ased": 1594,
      "vice": 1595,
      "Ġmult": 1596,
      "Ġproceed": 1597,
      "oss": 1598,
      "ultane": 1599,
      "Ġdifference": 1600,
      "Ġservice": 1601,
      "Ġpurport": 1602,
      "Ġsimultane": 1603,
      "Ġtells": 1604,
      "Ġsimultaneously": 1605,
      "Ġwind": 1606,
      "Ġharm": 1607,
      "idual": 1608,
      "Ġproport": 1609,
      "Ġrange": 1610,
      "Ġobserve": 1611,
      "Ġindiv": 1612,
      "aps": 1613,
      "Ġestablish": 1614,
      "Ġproportion": 1615,
      "Ġsens": 1616,
      "Ġsense": 1617,
      "Ġpersons": 1618,
      "Ġmean": 1619,
      "Ġassess": 1620,
      "Ġeverything": 1621,
      "Ġauthor": 1622,
      "Ġdirected": 1623,
      "Ġhouse": 1624,
      "ĠD": 1625,
      "writ": 1626,
      "Ġhandwrit": 1627,
      "Ġhypothesis": 1628,
      "semb": 1629,
      "Ġhandwriting": 1630,
      "hing": 1631,
      "old": 1632,
      "Ġprev": 1633,
      "Ġtheft": 1634,
      "iced": 1635,
      "Ġnow": 1636,
      "Ġstruct": 1637,
      "Ġcasual": 1638,
      "Ġsepar": 1639,
      "Ġdisturb": 1640,
      "Ġbetter": 1641,
      "Ġplaces": 1642,
      "Ġindep": 1643,
      "Ġconsistently": 1644,
      "Ġsuspected": 1645,
      "Ġsolution": 1646,
      "Ġsituations": 1647,
      "Ġleave": 1648,
      "Ġanxiety": 1649,
      "Ġlimited": 1650,
      "quiry": 1651,
      "Ġindepend": 1652,
      "dict": 1653,
      "Ġhigh": 1654,
      "erent": 1655,
      "Ġunt": 1656,
      "rain": 1657,
      "pped": 1658,
      "Ġinvestigate": 1659,
      "Ġrate": 1660,
      "Ġrout": 1661,
      "ifferent": 1662,
      "ogn": 1663,
      "Ġdirectly": 1664,
      "Ġinterpreted": 1665,
      "Ġused": 1666,
      "Ġsituation": 1667,
      "Ġadmir": 1668,
      "Ġafter": 1669,
      "Ġindividual": 1670,
      "Ġevent": 1671,
      "Ġunderstanding": 1672,
      "Ġprimarily": 1673,
      "Ġhappened": 1674,
      "Ġmom": 1675,
      "Ġled": 1676,
      "Ġtraining": 1677,
      "ĠMy": 1678,
      "Ġmoment": 1679,
      "Ġwhy": 1680,
      "Ġinference": 1681,
      "--": 1682,
      "Ġlet": 1683,
      "Ġ~": 1684,
      "lying": 1685,
      "ifically": 1686,
      "Ġspecifically": 1687,
      "place": 1688,
      "Ġsubst": 1689,
      "Ġcommunication": 1690,
      "Ġsour": 1691,
      "any": 1692,
      "Ġbl": 1693,
      "Ġresol": 1694,
      "Ġloc": 1695,
      "crim": 1696,
      "ling": 1697,
      "oci": 1698,
      "round": 1699,
      "unt": 1700,
      "Ġcarr": 1701,
      "Ġbur": 1702,
      "Ġfun": 1703,
      "lement": 1704,
      "Ġreprodu": 1705,
      "Ġnav": 1706,
      "Ġcomfort": 1707,
      "Ġcho": 1708,
      "Ġaccord": 1709,
      "Ġknows": 1710,
      "ript": 1711,
      "ruction": 1712,
      "ĠAnd": 1713,
      "iece": 1714,
      "Ġinstitut": 1715,
      "Ġarrange": 1716,
      "Ġassoci": 1717,
      "Ġdeterior": 1718,
      "Ġconducted": 1719,
      "Ġinvolved": 1720,
      "Ġskilled": 1721,
      "Ġdetermine": 1722,
      "Ġconsciously": 1723,
      "Ġmissing": 1724,
      "Ġaware": 1725,
      "Ġfeeling": 1726,
      "ributed": 1727,
      "Ġmedical": 1728,
      "Ġlabor": 1729,
      "Ġstructure": 1730,
      "Ġnavig": 1731,
      "Ġaccordingly": 1732,
      "Ġinstitutional": 1733,
      "ec": 1734,
      "face": 1735,
      "ses": 1736,
      "Ġca": 1737,
      "Ġwide": 1738,
      "Ġanother": 1739,
      "Ġmark": 1740,
      "Ġben": 1741,
      "veral": 1742,
      "Ġchair": 1743,
      "Ġend": 1744,
      "Ġseveral": 1745,
      "Ġrecogn": 1746,
      "Ġpredict": 1747,
      "Ġcommit": 1748,
      "Ġhands": 1749,
      "Ġbrings": 1750,
      "Ġfraudster": 1751,
      "Ġpoints": 1752,
      "Ġcontinuous": 1753,
      "Ġspent": 1754,
      "Ġencounter": 1755,
      "Ġdetective": 1756,
      "Ġexpression": 1757,
      "Ġconclusions": 1758,
      "Ġsignificance": 1759,
      "Ġconstitute": 1760,
      "Ġlogical": 1761,
      "Ġsimply": 1762,
      "pet": 1763,
      "sy": 1764,
      "ted": 1765,
      "Ġaud": 1766,
      "ises": 1767,
      "Ġpsy": 1768,
      "Ġleast": 1769,
      "Ġvariation": 1770,
      "Ġconfus": 1771,
      "Ġengaged": 1772,
      "Ġdistinction": 1773,
      "Ġproperly": 1774,
      "Ġbegin": 1775,
      "Ġpsych": 1776,
      "Ġpure": 1777,
      "Ġpurely": 1778,
      "Ġ*": 1779,
      "Ġpublic": 1780,
      "ĠHe": 1781,
      "Ġsay": 1782,
      "read": 1783,
      "ged": 1784,
      "ving": 1785,
      "Ġcount": 1786,
      "Ġwom": 1787,
      "orb": 1788,
      "Ġforgery": 1789,
      "Ġpaper": 1790,
      "Ġobjects": 1791,
      "Ġmin": 1792,
      "Ġanyone": 1793,
      "Ġdetermination": 1794,
      "Ġdemands": 1795,
      "Ġsource": 1796,
      "Ġhid": 1797,
      "estic": 1798,
      "Ġli": 1799,
      "Ġapplic": 1800,
      "Ġproduces": 1801,
      "Ġdomestic": 1802,
      "ns": 1803,
      "opped": 1804,
      "row": 1805,
      "tise": 1806,
      "zz": 1807,
      "Ġaut": 1808,
      "inent": 1809,
      "Ġcent": 1810,
      "Ġcult": 1811,
      "Ġworth": 1812,
      "Ġpap": 1813,
      "icity": 1814,
      "Ġbod": 1815,
      "Ġfurn": 1816,
      "Ġfacial": 1817,
      "enticity": 1818,
      "utions": 1819,
      "Ġnote": 1820,
      "ccess": 1821,
      "cipl": 1822,
      "ows": 1823,
      "Ġarea": 1824,
      "Ġsuccess": 1825,
      "pper": 1826,
      "Ġaccom": 1827,
      "Ġself": 1828,
      "Ġdiscipl": 1829,
      "Ġreconst": 1830,
      "Ġability": 1831,
      "Ġreadily": 1832,
      "Ġproducts": 1833,
      "Ġexpertise": 1834,
      "print": 1835,
      "Ġcover": 1836,
      "Ġreference": 1837,
      "Ġnewer": 1838,
      "Ġabsent": 1839,
      "Ġpuzz": 1840,
      "Ġorganised": 1841,
      "ropol": 1842,
      "Ġcourt": 1843,
      "Ġsuppress": 1844,
      "Ġsolutions": 1845,
      "Ġcontinuously": 1846,
      "Ġmetropol": 1847,
      "Ġtends": 1848,
      "Ġmatch": 1849,
      "Ġauthenticity": 1850,
      "Ġdetection": 1851,
      "Ġfootprint": 1852,
      "Ġmode": 1853,
      "Ġspecialists": 1854,
      "Ġvolunt": 1855,
      "Ġperfectly": 1856,
      "Ġburned": 1857,
      "Ġgeography": 1858,
      "Ġspeaks": 1859,
      "Ġrigor": 1860,
      "Ġconcentrated": 1861,
      "Ġlearn": 1862,
      "Ġproceeding": 1863,
      "Ġlaboratory": 1864,
      "Ġcultiv": 1865,
      "Ġpapers": 1866,
      "Ġdiscipline": 1867,
      "It": 1868,
      "ien": 1869,
      "ian": 1870,
      "ler": 1871,
      "rew": 1872,
      "rees": 1873,
      "isible": 1874,
      "ale": 1875,
      "Ġindu": 1876,
      "set": 1877,
      "Ġinvisible": 1878,
      "Ġvary": 1879,
      "Ġmanaged": 1880,
      "Ġobservational": 1881,
      "Ġworked": 1882,
      "Ġoutset": 1883,
      "Ġdegrees": 1884,
      "Ġcoherent": 1885,
      "Ġoperator": 1886,
      "Ġaccuracy": 1887,
      "Ġmaintaining": 1888,
      "Ġallows": 1889,
      "Ġsett": 1890,
      "plicable": 1891,
      "Ġmorning": 1892,
      "Ġreporting": 1893,
      "Ġera": 1894,
      "Ġprovid": 1895,
      "Ġthoroughness": 1896,
      "Ġexisted": 1897,
      "Ġadvantages": 1898,
      "Ġpopulation": 1899,
      "Ġinexplicable": 1900,
      "Ġfundamental": 1901,
      "Ġbench": 1902,
      "Ġvarying": 1903,
      "atives": 1904,
      "Ġmi": 1905,
      "advant": 1906,
      "Ġdisadvant": 1907,
      "Ġwilling": 1908,
      "Ġperpet": 1909,
      "Ġwealth": 1910,
      "Ġscru": 1911,
      "Ġapproaching": 1912,
      "Ġdelivery": 1913,
      "Ġnarratives": 1914,
      "Ġdrama": 1915,
      "Ġcapable": 1916,
      "Ġoccasionally": 1917,
      "Ġdisadvantage": 1918,
      "Ġwent": 1919,
      "verty": 1920,
      "Ġpoverty": 1921,
      "Ġinterpretive": 1922,
      "Ġeconomic": 1923,
      "Ġunderestim": 1924,
      "Ġexplan": 1925,
      "Ġletter": 1926,
      "rong": 1927,
      "ĠWhat": 1928,
      "uild": 1929,
      "itive": 1930,
      "Ġbuild": 1931,
      "Ġkne": 1932,
      "Ġyet": 1933,
      "Ġtrans": 1934,
      "iple": 1935,
      "Ġlooking": 1936,
      "Ġbelieves": 1937,
      "Ġerr": 1938,
      "Ġreceived": 1939,
      "Ġanswer": 1940,
      "Ġmultiple": 1941,
      "Ġknew": 1942,
      "oing": 1943,
      "erial": 1944,
      "Ġpast": 1945,
      "Ġexter": 1946,
      "Ġview": 1947,
      "Ġpref": 1948,
      "Ġacknow": 1949,
      "Ġrelationships": 1950,
      "Ġmaterial": 1951,
      "Ġasking": 1952,
      "Ġopportunity": 1953,
      "Ġprevent": 1954,
      "Ġbene": 1955,
      "Ġtoward": 1956,
      "ilities": 1957,
      "Ġintelligent": 1958,
      "Ġexpected": 1959,
      "Ġassessment": 1960,
      "Ġlike": 1961,
      "Ġoth": 1962,
      "Ġothers": 1963,
      "Ġmoral": 1964,
      "incidence": 1965,
      "Ġpolice": 1966,
      "bour": 1967,
      "Ġfl": 1968,
      "Ġaccess": 1969,
      "Ġneigh": 1970,
      "Ġknown": 1971,
      "Ġsusp": 1972,
      "Ġfamily": 1973,
      "Ġneighbour": 1974,
      "Ġwrong": 1975,
      "Ġdone": 1976,
      "Ġnothing": 1977,
      "Ġmem": 1978,
      "Ġconsidered": 1979,
      "Ġdifficulty": 1980,
      "ĠDo": 1981,
      "Ġreach": 1982,
      "aw": 1983,
      "low": 1984,
      "ng": 1985,
      "wise": 1986,
      "atically": 1987,
      "Ġsi": 1988,
      "alog": 1989,
      "ick": 1990,
      "edu": 1991,
      "vements": 1992,
      "Ġel": 1993,
      "Ġbelow": 1994,
      "Ġmovements": 1995,
      "Ġlatter": 1996,
      "Ġassemb": 1997,
      "Ġsuper": 1998,
      "Ġdeath": 1999,
      "Ġnear": 2000,
      "Ġobservations": 2001,
      "Ġprepar": 2002,
      "Ġsystematically": 2003,
      "Ġpress": 2004,
      "prising": 2005,
      "Ġotherwise": 2006,
      "ensive": 2007,
      "Ġexamined": 2008,
      "Ġsurprising": 2009,
      "Ġhimself": 2010,
      "ception": 2011,
      "ceptible": 2012,
      "Ġconclusion": 2013,
      "Ġpurports": 2014,
      "ait": 2015,
      "ges": 2016,
      "haps": 2017,
      "rence": 2018,
      "erc": 2019,
      "Ġsl": 2020,
      "ised": 2021,
      "Ġmen": 2022,
      "Ġhold": 2023,
      "Ġfac": 2024,
      "Ġretain": 2025,
      "Ġorig": 2026,
      "vers": 2027,
      "Ġexerc": 2028,
      "Ġgather": 2029,
      "rained": 2030,
      "ume": 2031,
      "Ġaction": 2032,
      "Ġperm": 2033,
      "Ġperhaps": 2034,
      "Ġtechnically": 2035,
      "Ġrelative": 2036,
      "Ġcarefully": 2037,
      "Ġcombination": 2038,
      "Ġinstrument": 2039,
      "Ġscheme": 2040,
      "Ġroutine": 2041,
      "Ġadmirable": 2042,
      "Ġfacult": 2043,
      "nel": 2044,
      "Ġthen": 2045,
      "ism": 2046,
      "annel": 2047,
      "actly": 2048,
      "Ġexactly": 2049,
      "Ġchannel": 2050,
      "uded": 2051,
      "ivable": 2052,
      "Ġconceivable": 2053,
      "Ġconcluded": 2054,
      "Ġachieve": 2055,
      "Ġhidden": 2056,
      "Ġapplication": 2057,
      "Ġtreat": 2058,
      "Ġcombined": 2059,
      "Ġdangerous": 2060,
      "Ġwillingness": 2061,
      "ellish": 2062,
      "Ġembellish": 2063,
      "Ġcoincidence": 2064,
      "nect": 2065,
      "iss": 2066,
      "Ġfur": 2067,
      "Ġconnect": 2068,
      "Ġonce": 2069,
      "Ġsurve": 2070,
      "Ġrecords": 2071,
      "Ġsuggests": 2072,
      "Ġfurther": 2073,
      "mail": 2074,
      "Ġtoo": 2075,
      "Ġlast": 2076,
      "ĠBut": 2077,
      "Ġoccurred": 2078,
      "Ġjust": 2079,
      "ackmail": 2080,
      "Ġblackmail": 2081,
      "Ġmemory": 2082,
      "Ġreached": 2083,
      "gy": 2084,
      "ger": 2085,
      "hood": 2086,
      "iable": 2087,
      "les": 2088,
      "ross": 2089,
      "ze": 2090,
      "ĠP": 2091,
      "Ġrap": 2092,
      "rent": 2093,
      "enient": 2094,
      "Ġcat": 2095,
      "Ġparent": 2096,
      "Ġmud": 2097,
      "Ġdedu": 2098,
      "aries": 2099,
      "Ġear": 2100,
      "Ġwhom": 2101,
      "Ġner": 2102,
      "Ġbeings": 2103,
      "idue": 2104,
      "istry": 2105,
      "Ġnoted": 2106,
      "Ġlight": 2107,
      "Ġvict": 2108,
      "Ġdeception": 2109,
      "Ġchild": 2110,
      "Ġstor": 2111,
      "Ġpractition": 2112,
      "uses": 2113,
      "Ġsees": 2114,
      "Ġconsult": 2115,
      "Ġresidue": 2116,
      "Ġdisru": 2117,
      "Ġcharacterisation": 2118,
      "Ġalone": 2119,
      "Ġalarm": 2120,
      "Ġmanagement": 2121,
      "Ġcompet": 2122,
      "Ġpreced": 2123,
      "Ġcontr": 2124,
      "ĠTo": 2125,
      "Ġprofession": 2126,
      "Ġpresents": 2127,
      "Ġcloth": 2128,
      "Ġhandle": 2129,
      "Ġinstance": 2130,
      "Ġsusceptible": 2131,
      "Ġprecision": 2132,
      "Ġregist": 2133,
      "Ġacross": 2134,
      "Ġchemistry": 2135,
      "Ġfinds": 2136,
      "Ġhabitual": 2137,
      "Ġconducting": 2138,
      "Ġsuppose": 2139,
      "Ġinvolving": 2140,
      "Ġreasons": 2141,
      "Ġresponses": 2142,
      "Ġattempting": 2143,
      "Ġrespects": 2144,
      "Ġperiods": 2145,
      "Ġdistinct": 2146,
      "Ġconscious": 2147,
      "Ġindicators": 2148,
      "ĠEng": 2149,
      "Ġreveal": 2150,
      "Ġreveals": 2151,
      "Ġprinting": 2152,
      "Ġinhabitants": 2153,
      "Ġcorrespondence": 2154,
      "Ġindependent": 2155,
      "Ġfunction": 2156,
      "Ġarrangement": 2157,
      "Ġexercise": 2158,
      "Ġrapid": 2159,
      "Ġvictim": 2160,
      "Ġpractitioners": 2161,
      "Ġdisrupt": 2162,
      "Ġpreceding": 2163,
      "ĠEnglish": 2164,
      "aced": 2165,
      "gitimate": 2166,
      "just": 2167,
      "mos": 2168,
      "rud": 2169,
      "where": 2170,
      "ĠV": 2171,
      "Ġil": 2172,
      "Ġid": 2173,
      "inate": 2174,
      "Ġcur": 2175,
      "Ġcame": 2176,
      "Ġcrud": 2177,
      "Ġpat": 2178,
      "Ġmar": 2179,
      "entional": 2180,
      "legitimate": 2181,
      "Ġexec": 2182,
      "Ġinvari": 2183,
      "raord": 2184,
      "Ġatmos": 2185,
      "Ġinvestigations": 2186,
      "Ġright": 2187,
      "Ġampl": 2188,
      "Ġindifferent": 2189,
      "aging": 2190,
      "Ġextraord": 2191,
      "Ġexplain": 2192,
      "Ġaccept": 2193,
      "Ġassist": 2194,
      "Ġmatters": 2195,
      "Ġsurround": 2196,
      "Ġtakes": 2197,
      "Ġreliability": 2198,
      "Ġvalu": 2199,
      "Ġattempted": 2200,
      "Ġincre": 2201,
      "Ġconventional": 2202,
      "Ġrepresents": 2203,
      "Ġexploit": 2204,
      "Ġnecessity": 2205,
      "Ġsophistication": 2206,
      "Ġwidely": 2207,
      "Ġexternal": 2208,
      "Ġprefer": 2209,
      "Ġorigin": 2210,
      "Ġillegitimate": 2211,
      "Ġcrude": 2212,
      "Ġexecution": 2213,
      "Ġinvariably": 2214,
      "Ġatmosp": 2215,
      "vered": 2216,
      "Ġenfor": 2217,
      "Ġpurs": 2218,
      "Ġagent": 2219,
      "Ġdiscovered": 2220,
      "Ġnarrative": 2221,
      "Ġdramatic": 2222,
      "Ġsophisticated": 2223,
      "Ġconfusion": 2224,
      "noc": 2225,
      "Ġinnoc": 2226,
      "Ġinnocent": 2227,
      "Ġalread": 2228,
      "Ġalready": 2229,
      "Ġthree": 2230,
      "ĠIf": 2231,
      "so": 2232,
      "Ġsing": 2233,
      "Ġchanged": 2234,
      "Ġdirection": 2235,
      "Ġimpro": 2236,
      "Ġimpress": 2237,
      "ĠNot": 2238,
      "Ġsubstance": 2239,
      "Ġwoman": 2240,
      "Ġsingle": 2241,
      "lp": 2242,
      "ration": 2243,
      "Ġcal": 2244,
      "ase": 2245,
      "Ġret": 2246,
      "Ġobsc": 2247,
      "ends": 2248,
      "Ġquite": 2249,
      "Ġhelp": 2250,
      "Ġoccupants": 2251,
      "Ġcalc": 2252,
      "Ġpractically": 2253,
      "Watson": 2254,
      "dating": 2255,
      "faces": 2256,
      "hand": 2257,
      "live": 2258,
      "mok": 2259,
      "ob": 2260,
      "over": 2261,
      "off": 2262,
      "piece": 2263,
      "smok": 2264,
      "ting": 2265,
      "tinent": 2266,
      "uff": 2267,
      "uage": 2268,
      "wind": 2269,
      "Ġtable": 2270,
      "onent": 2271,
      "ontinent": 2272,
      "Ġcou": 2273,
      "Ġcred": 2274,
      "Ġsme": 2275,
      "Ġsitting": 2276,
      "Ġswind": 2277,
      "Ġwall": 2278,
      "alf": 2279,
      "itan": 2280,
      "iture": 2281,
      "itory": 2282,
      "itution": 2283,
      "Ġmap": 2284,
      "Ġhalf": 2285,
      "Ġbreat": 2286,
      "orarily": 2287,
      "arre": 2288,
      "cting": 2289,
      "Ġtoe": 2290,
      "Ġtop": 2291,
      "Ġtool": 2292,
      "step": 2293,
      "There": 2294,
      "ider": 2295,
      "Ġlay": 2296,
      "Ġlang": 2297,
      "Ġexcess": 2298,
      "Ġgrew": 2299,
      "cious": 2300,
      "Ġupper": 2301,
      "ray": 2302,
      "rage": 2303,
      "Ġash": 2304,
      "Ġvoc": 2305,
      "Ġvaries": 2306,
      "Ġdelive": 2307,
      "Ġrand": 2308,
      "Ġstand": 2309,
      "Ġstopped": 2310,
      "Ġenab": 2311,
      "plish": 2312,
      "play": 2313,
      "Ġpracticed": 2314,
      "irect": 2315,
      "Ġdiffers": 2316,
      "Ġapply": 2317,
      "Ġresident": 2318,
      "Ġdisplay": 2319,
      "Ġcharacterise": 2320,
      "Ġalong": 2321,
      "Ġtemp": 2322,
      "tening": 2323,
      "teness": 2324,
      "Ġsymp": 2325,
      "Ġdesign": 2326,
      "Ġreads": 2327,
      "Ġreadiness": 2328,
      "Ġcontam": 2329,
      "Ġproduction": 2330,
      "Ġentang": 2331,
      "Ġaround": 2332,
      "ountered": 2333,
      "Ġcompleteness": 2334,
      "Ġheel": 2335,
      "Ġdocumented": 2336,
      "Ġstudied": 2337,
      "Ġindirect": 2338,
      "Ġidentity": 2339,
      "Ġshall": 2340,
      "Ġhandled": 2341,
      "elow": 2342,
      "Ġdegrad": 2343,
      "Ġcoal": 2344,
      "Ġcoll": 2345,
      "Ġstudying": 2346,
      "Ġextent": 2347,
      "ĠBelow": 2348,
      "Ġidentifiable": 2349,
      "Ġpresentation": 2350,
      "Ġdescript": 2351,
      "Ġapproaches": 2352,
      "Ġengage": 2353,
      "Ġemotionally": 2354,
      "Ġdiscomfort": 2355,
      "Ġabsorb": 2356,
      "Ġsubjects": 2357,
      "Ġoperators": 2358,
      "Ġdistinguishable": 2359,
      "Ġidentifying": 2360,
      "Ġenvironments": 2361,
      "Ġorganisers": 2362,
      "Ġsignal": 2363,
      "Ġgreatest": 2364,
      "Ġopponent": 2365,
      "iveness": 2366,
      "Ġnaturally": 2367,
      "Ġtextual": 2368,
      "Ġallowed": 2369,
      "Ġexperiment": 2370,
      "Ġfoggy": 2371,
      "ĠContinent": 2372,
      "airly": 2373,
      "Ġreality": 2374,
      "Ġcommunicate": 2375,
      "Ġinsuff": 2376,
      "Ġrespectable": 2377,
      "Ġincident": 2378,
      "Ġtechnique": 2379,
      "Ġconvenient": 2380,
      "Ġalters": 2381,
      "Ġalteration": 2382,
      "Ġencountered": 2383,
      "Ġfamiliarity": 2384,
      "Ġpavement": 2385,
      "Ġnormally": 2386,
      "Ġreflected": 2387,
      "Ġexpressions": 2388,
      "Ġoccupant": 2389,
      "Ġcreate": 2390,
      "Ġfootstep": 2391,
      "Ġintersecting": 2392,
      "Ġsounds": 2393,
      "Ġupdating": 2394,
      "Ġshel": 2395,
      "Ġregarded": 2396,
      "Ġindicate": 2397,
      "Ġexploitation": 2398,
      "Ġgoods": 2399,
      "Ġtrust": 2400,
      "Ġdepended": 2401,
      "Ġvolume": 2402,
      "Ġdemonstrates": 2403,
      "Ġmannerism": 2404,
      "Ġclasses": 2405,
      "Ġschemes": 2406,
      "Ġuncomfort": 2407,
      "Ġacquis": 2408,
      "Ġacquire": 2409,
      "Ġremain": 2410,
      "strial": 2411,
      "strike": 2412,
      "Ġmonographs": 2413,
      "Ġhierarchy": 2414,
      "Ġhierarchies": 2415,
      "Ġextensive": 2416,
      "Ġseems": 2417,
      "Ġestablishment": 2418,
      "Ġsenses": 2419,
      "Ġseparate": 2420,
      "Ġdisturbance": 2421,
      "Ġhighest": 2422,
      "criminal": 2423,
      "Ġcarries": 2424,
      "Ġreproduce": 2425,
      "Ġchooses": 2426,
      "Ġassociate": 2427,
      "Ġdeterioration": 2428,
      "Ġauditory": 2429,
      "Ġcentur": 2430,
      "Ġworthy": 2431,
      "Ġbody": 2432,
      "Ġfurniture": 2433,
      "Ġsuccessful": 2434,
      "Ġaccomplish": 2435,
      "Ġreconstruction": 2436,
      "Ġpuzzlement": 2437,
      "Ġcourts": 2438,
      "Ġmetropolitan": 2439,
      "Ġvoluntarily": 2440,
      "Ġrigorous": 2441,
      "Ġcultivation": 2442,
      "Ġindustrial": 2443,
      "Ġmaterials": 2444,
      "Ġsize": 2445,
      "alogu": 2446,
      "Ġcatalogu": 2447,
      "Ġconsulting": 2448,
      "Ġclothing": 2449,
      "Ġregister": 2450,
      "Ġamplification": 2451,
      "Ġatmosphere": 2452,
      "Ġcourage": 2453,
      "Ġsmell": 2454,
      "Ġswindler": 2455,
      "Ġlanguage": 2456,
      "Ġexcessive": 2457,
      "Ġdelivered": 2458,
      "Ġrandom": 2459,
      "Ġstandard": 2460,
      "Ġenabled": 2461,
      "Ġresidential": 2462,
      "Ġtemporarily": 2463,
      "Ġsympath": 2464,
      "Ġdescription": 2465,
      "Ġinsuffici": 2466,
      "Ġfootsteps": 2467,
      "Ġmannerisms": 2468,
      "Ġuncomfortable": 2469,
      "And": 2470,
      "My": 2471,
      "Th": 2472,
      "band": 2473,
      "cus": 2474,
      "xibility": 2475,
      "Ġaim": 2476,
      "athe": 2477,
      "iter": 2478,
      "Ġhus": 2479,
      "Ġdow": 2480,
      "orter": 2481,
      "orian": 2482,
      "ouble": 2483,
      "Ġfle": 2484,
      "Ġtook": 2485,
      "Ġreward": 2486,
      "ets": 2487,
      "Ġcontain": 2488,
      "Ġmovement": 2489,
      "Ġliter": 2490,
      "Ġgathe": 2491,
      "cive": 2492,
      "Ġforth": 2493,
      "Ġcomplic": 2494,
      "Ġaspect": 2495,
      "Ġdoor": 2496,
      "Ġinvestigating": 2497,
      "Ġcompressed": 2498,
      "formation": 2499,
      "tenance": 2500,
      "Ġvaried": 2501,
      "Ġvariations": 2502,
      "Ġsubm": 2503,
      "Ġadop": 2504,
      "Ġtrouble": 2505,
      "ights": 2506,
      "ictorian": 2507,
      "Ġindex": 2508,
      "Ġexperien": 2509,
      "ĠHis": 2510,
      "Ġrefining": 2511,
      "Ġexplic": 2512,
      "Ġpresented": 2513,
      "Ġdeveloping": 2514,
      "Ġfocus": 2515,
      "Ġconducive": 2516,
      "Ġengages": 2517,
      "Ġassum": 2518,
      "Ġmaintenance": 2519,
      "Ġmaintained": 2520,
      "Ġevenings": 2521,
      "Ġresource": 2522,
      "Ġexpectations": 2523,
      "Ġanticipate": 2524,
      "Ġaddressed": 2525,
      "Ġregularity": 2526,
      "Ġinstruments": 2527,
      "Ġopportunistic": 2528,
      "Ġintervals": 2529,
      "Ġcorrespondingly": 2530,
      "Ġextension": 2531,
      "Ġuntrained": 2532,
      "Ġprovides": 2533,
      "ĠVictorian": 2534,
      "Ġmarg": 2535,
      "Ġextraordinary": 2536,
      "Ġassistance": 2537,
      "This": 2538,
      "Ġhusband": 2539,
      "Ġdown": 2540,
      "Ġflexibility": 2541,
      "Ġgathered": 2542,
      "Ġindexes": 2543,
      "Ġexperienced": 2544,
      "hy": 2545,
      "pul": 2546,
      "rators": 2547,
      "xed": 2548,
      "Ġra": 2549,
      "reme": 2550,
      "itical": 2551,
      "Ġlif": 2552,
      "Ġring": 2553,
      "Ġrhy": 2554,
      "Ġpartly": 2555,
      "Ġworst": 2556,
      "Ġready": 2557,
      "Ġmethodological": 2558,
      "thm": 2559,
      "Ġforms": 2560,
      "Ġinterpreting": 2561,
      "Ġextreme": 2562,
      "Ġkinds": 2563,
      "Ġclearly": 2564,
      "Ġreasoning": 2565,
      "Ġecology": 2566,
      "Ġextraction": 2567,
      "Ġpolitical": 2568,
      "Ġillust": 2569,
      "Ġpsychology": 2570,
      "Ġmixed": 2571,
      "Ġperpetrators": 2572,
      "Ġscrupul": 2573,
      "Ġunderestimation": 2574,
      "Ġembellishing": 2575,
      "Ġrhythm": 2576,
      "Ġdate": 2577,
      "Ġanything": 2578,
      "ĠTell": 2579,
      "ĠHas": 2580,
      "ck": 2581,
      "miss": 2582,
      "native": 2583,
      "ison": 2584,
      "itance": 2585,
      "Ġhere": 2586,
      "Ġdi": 2587,
      "omes": 2588,
      "iding": 2589,
      "chanis": 2590,
      "heritance": 2591,
      "osed": 2592,
      "Ġmechanis": 2593,
      "Ġalso": 2594,
      "Ġcompany": 2595,
      "Ġbecomes": 2596,
      "icious": 2597,
      "ppeared": 2598,
      "Ġamount": 2599,
      "Ġclos": 2600,
      "Ġpoison": 2601,
      "Ġconfir": 2602,
      "Ġtested": 2603,
      "Ġtake": 2604,
      "Ġlooks": 2605,
      "Ġcondition": 2606,
      "Ġsufficiently": 2607,
      "Ġsaid": 2608,
      "Ġconvinc": 2609,
      "Ġalternative": 2610,
      "Ġdemanding": 2611,
      "Ġtrue": 2612,
      "Ġsignificant": 2613,
      "Ġverification": 2614,
      "Ġresolve": 2615,
      "Ġcountry": 2616,
      "Ġbuilding": 2617,
      "Ġerror": 2618,
      "Ġsuspicious": 2619,
      "Ġmechanism": 2620,
      "ines": 2621,
      "Ġinquiry": 2622,
      "ulner": 2623,
      "Ġvulner": 2624,
      "ained": 2625,
      "Ġparts": 2626,
      "Ġmanage": 2627,
      "ending": 2628,
      "ĠThat": 2629,
      "Ġaddress": 2630,
      "Ġkeep": 2631,
      "Ġconstructed": 2632,
      "Ġwindow": 2633,
      "line": 2634,
      "pen": 2635,
      "Ġopen": 2636,
      "Ġenquiry": 2637,
      "Ġpossibility": 2638,
      "Ġcategory": 2639,
      "Ġconcealed": 2640,
      "Ġlikely": 2641,
      "less": 2642,
      "Ġwhate": 2643,
      "Ġinterests": 2644,
      "Ġends": 2645,
      "Ġwhatever": 2646,
      "Ġturn": 2647,
      "---": 2648,
      "ek": 2649,
      "ĠY": 2650,
      "Ġwat": 2651,
      "ĠIs": 2652,
      "Ġweek": 2653,
      "Ġexamine": 2654,
      "Ġletters": 2655,
      "Ġprobability": 2656,
      "Ġdec": 2657,
      "ease": 2658,
      "fact": 2659,
      "ficial": 2660,
      "lies": 2661,
      "lance": 2662,
      "ove": 2663,
      "ufact": 2664,
      "ye": 2665,
      "Ġaffect": 2666,
      "iner": 2667,
      "reh": 2668,
      "Ġwit": 2669,
      "Ġpar": 2670,
      "alse": 2671,
      "Ġinheritance": 2672,
      "Ġhund": 2673,
      "Ġfalse": 2674,
      "Ġrepl": 2675,
      "Ġreplace": 2676,
      "Ġever": 2677,
      "Ġnoticed": 2678,
      "Ġlies": 2679,
      "Ġlost": 2680,
      "Ġlaw": 2681,
      "Ġgait": 2682,
      "Ġinvent": 2683,
      "Ġchange": 2684,
      "Ġselection": 2685,
      "Ġapplies": 2686,
      "ake": 2687,
      "Ġneither": 2688,
      "Ġresidence": 2689,
      "Ġdismiss": 2690,
      "Ġalt": 2691,
      "Ġmanufact": 2692,
      "Ġcompreh": 2693,
      "Ġdifferently": 2694,
      "ician": 2695,
      "athering": 2696,
      "Ġformer": 2697,
      "une": 2698,
      "Ġpossib": 2699,
      "Ġsurv": 2700,
      "Ġforged": 2701,
      "Ġcontinue": 2702,
      "Ġseeing": 2703,
      "Ġfailed": 2704,
      "Ġsubsequently": 2705,
      "Ġusual": 2706,
      "Ġirre": 2707,
      "Ġencod": 2708,
      "Ġpassed": 2709,
      "Ġprimary": 2710,
      "Ġleaves": 2711,
      "Ġkept": 2712,
      "Ġaccidental": 2713,
      "Ġfriends": 2714,
      "Ġachieved": 2715,
      "Ġdisturbed": 2716,
      "Ġlocation": 2717,
      "Ġexplanations": 2718,
      "Ġelse": 2719,
      "Ġassembled": 2720,
      "Ġsuperficial": 2721,
      "Ġpreparation": 2722,
      "Ġpressure": 2723,
      "Ġslight": 2724,
      "Ġimpressions": 2725,
      "Ġcloser": 2726,
      "Ġwitness": 2727,
      "Ġhundred": 2728,
      "Ġpossibilities": 2729,
      "aj": 2730,
      "come": 2731,
      "going": 2732,
      "ple": 2733,
      "Ġwant": 2734,
      "Ġmot": 2735,
      "Ġmaj": 2736,
      "Ġdest": 2737,
      "ority": 2738,
      "Ġfall": 2739,
      "stained": 2740,
      "Ġconsequ": 2741,
      "Ġsustained": 2742,
      "Ġchain": 2743,
      "Ġchall": 2744,
      "Ġintern": 2745,
      "Ġreader": 2746,
      "Ġhealth": 2747,
      "Ġinstin": 2748,
      "Ġconcer": 2749,
      "Ġconstrain": 2750,
      "ĠSome": 2751,
      "Ġclever": 2752,
      "Ġclients": 2753,
      "airs": 2754,
      "Ġcommunications": 2755,
      "Ġhypotheses": 2756,
      "ĠOr": 2757,
      "Ġacknowledge": 2758,
      "Ġfaculties": 2759,
      "Ġblackmailer": 2760,
      "Ġmotiv": 2761,
      "Ġchallen": 2762,
      "Ġthreat": 2763,
      "its": 2764,
      "anced": 2765,
      "ational": 2766,
      "Ġwriting": 2767,
      "Ġbenef": 2768,
      "Ġchannels": 2769,
      "ring": 2770,
      "uil": 2771,
      "Ġlying": 2772,
      "Ġrev": 2773,
      "ceased": 2774,
      "Ġmoved": 2775,
      "Ġguil": 2776,
      "Ġdeceased": 2777,
      "Ġchance": 2778,
      "illance": 2779,
      "Ġdocumentary": 2780,
      "ĠHow": 2781,
      "Ġcertainty": 2782,
      "Ġprobable": 2783,
      "Ġanswers": 2784,
      "Ġexplanation": 2785,
      "Ġsurveillance": 2786,
      "ĠYou": 2787,
      "Ġwatch": 2788,
      "ĠWh": 2789,
      "ĠAs": 2790,
      "For": 2791,
      "aus": 2792,
      "by": 2793,
      "cript": 2794,
      "ely": 2795,
      "ead": 2796,
      "ffort": 2797,
      "gl": 2798,
      "greg": 2799,
      "gathering": 2800,
      "iological": 2801,
      "lated": 2802,
      "mor": 2803,
      "nces": 2804,
      "oot": 2805,
      "ph": 2806,
      "pan": 2807,
      "ries": 2808,
      "rog": 2809,
      "tend": 2810,
      "tane": 2811,
      "vance": 2812,
      "vious": 2813,
      "ximate": 2814,
      "yed": 2815,
      "Ġed": 2816,
      "Ġtens": 2817,
      "Ġthir": 2818,
      "inarily": 2819,
      "Ġour": 2820,
      "related": 2821,
      "atical": 2822,
      "onents": 2823,
      "enon": 2824,
      "enom": 2825,
      "enet": 2826,
      "Ġcar": 2827,
      "Ġcreat": 2828,
      "Ġsan": 2829,
      "Ġsent": 2830,
      "Ġsam": 2831,
      "Ġspon": 2832,
      "Ġwife": 2833,
      "iscrim": 2834,
      "Ġpace": 2835,
      "Ġpiece": 2836,
      "itly": 2837,
      "itable": 2838,
      "ices": 2839,
      "Ġmaps": 2840,
      "ioned": 2841,
      "Ġboot": 2842,
      "Ġfaces": 2843,
      "levance": 2844,
      "ases": 2845,
      "asily": 2846,
      "Ġrepe": 2847,
      "omatic": 2848,
      "Ġeye": 2849,
      "Ġeffort": 2850,
      "Ġeasily": 2851,
      "Ġnor": 2852,
      "Ġprot": 2853,
      "Ġitem": 2854,
      "iring": 2855,
      "utation": 2856,
      "ulent": 2857,
      "Ġorient": 2858,
      "Ġprop": 2859,
      "lls": 2860,
      "Ġforty": 2861,
      "olen": 2862,
      "ively": 2863,
      "Ġdept": 2864,
      "Ġstages": 2865,
      "Ġstolen": 2866,
      "antity": 2867,
      "Ġenorm": 2868,
      "Ġpractices": 2869,
      "Ġpersist": 2870,
      "Ġphenom": 2871,
      "Ġdiffer": 2872,
      "akness": 2873,
      "andon": 2874,
      "lier": 2875,
      "Ġpartner": 2876,
      "Ġimplic": 2877,
      "Ġcomponents": 2878,
      "ored": 2879,
      "Ġdistance": 2880,
      "Ġobserving": 2881,
      "atedly": 2882,
      "Ġinternal": 2883,
      "Ġpretend": 2884,
      "Ġquantity": 2885,
      "Ġabandon": 2886,
      "Ġcontact": 2887,
      "pty": 2888,
      "Ġadult": 2889,
      "Ġproductive": 2890,
      "Ġempty": 2891,
      "Ġplaus": 2892,
      "royed": 2893,
      "ĠAt": 2894,
      "Ġunf": 2895,
      "Ġunrelated": 2896,
      "Ġrequiring": 2897,
      "Ġperce": 2898,
      "Ġweakness": 2899,
      "Ġdocumentation": 2900,
      "agn": 2901,
      "Ġtimes": 2902,
      "Ġshow": 2903,
      "Ġshare": 2904,
      "hematical": 2905,
      "Ġsimulation": 2906,
      "Ġhandling": 2907,
      "Ġoutline": 2908,
      "Ġaggreg": 2909,
      "Ġinstead": 2910,
      "Ġapproximate": 2911,
      "Ġconstant": 2912,
      "Ġconstruction": 2913,
      "Ġexamining": 2914,
      "Ġoccurrence": 2915,
      "Ġreputation": 2916,
      "Ġoperates": 2917,
      "Ġsurface": 2918,
      "Ġdisappeared": 2919,
      "Ġhabitually": 2920,
      "Ġattributed": 2921,
      "Ġoffers": 2922,
      "Ġsits": 2923,
      "Ġfraudulent": 2924,
      "Ġobvious": 2925,
      "Ġpointed": 2926,
      "Ġimposs": 2927,
      "Ġunderstandable": 2928,
      "Ġinvolves": 2929,
      "Ġinvolvement": 2930,
      "Ġtexture": 2931,
      "Ġreasonable": 2932,
      "Ġseconds": 2933,
      "Ġelement": 2934,
      "Ġmathematical": 2935,
      "Ġneeds": 2936,
      "Ġwalks": 2937,
      "Ġdistinctive": 2938,
      "Ġjudged": 2939,
      "Ġbehavioural": 2940,
      "Ġmentioned": 2941,
      "Ġrecei": 2942,
      "Ġtruly": 2943,
      "ĠEvery": 2944,
      "semble": 2945,
      "Ġkey": 2946,
      "Ġaway": 2947,
      "Ġartic": 2948,
      "Ġconstitutes": 2949,
      "Ġmusc": 2950,
      "Ġirregularity": 2951,
      "Ġpurported": 2952,
      "Ġindependently": 2953,
      "Ġuntil": 2954,
      "Ġcarry": 2955,
      "Ġassociations": 2956,
      "Ġdeteriorates": 2957,
      "Ġpsychological": 2958,
      "Ġcountries": 2959,
      "Ġacknowled": 2960,
      "Ġbeneath": 2961,
      "Ġaccessible": 2962,
      "Ġconnections": 2963,
      "gery": 2964,
      "Ġdeduction": 2965,
      "Ġearlier": 2966,
      "Ġnerve": 2967,
      "Ġchildhood": 2968,
      "Ġstorage": 2969,
      "Ġcontrary": 2970,
      "Ġdisrupted": 2971,
      "Ġcurrent": 2972,
      "Ġincreased": 2973,
      "Ġdiagn": 2974,
      "Ġconfirmed": 2975,
      "Ġconvincing": 2976,
      "Ġreplaced": 2977,
      "Ġinventory": 2978,
      "Ġaltered": 2979,
      "Ġcomprehensive": 2980,
      "Ġsurvive": 2981,
      "Ġirrelevant": 2982,
      "Ġslightly": 2983,
      "Ġdestroyed": 2984,
      "Forgery": 2985,
      "taneous": 2986,
      "Ġtension": 2987,
      "Ġspontaneous": 2988,
      "Ġrepeatedly": 2989,
      "Ġprotect": 2990,
      "Ġdepth": 2991,
      "Ġenormous": 2992,
      "Ġphenomenon": 2993,
      "Ġplausible": 2994,
      "Ġaggregate": 2995,
      "Ġapproximately": 2996,
      "Ġimpossible": 2997,
      "de": 2998,
      "ded": 2999,
      "day": 3000,
      "dden": 3001,
      "fe": 3002,
      "gently": 3003,
      "gether": 3004,
      "lict": 3005,
      "ming": 3006,
      "ub": 3007,
      "ued": 3008,
      "Ġur": 3009,
      "reci": 3010,
      "enable": 3011,
      "Ġpot": 3012,
      "Ġinjust": 3013,
      "ics": 3014,
      "Ġmur": 3015,
      "edded": 3016,
      "Ġbest": 3017,
      "Ġbound": 3018,
      "Ġday": 3019,
      "Ġfut": 3020,
      "Ġfore": 3021,
      "Ġtogether": 3022,
      "Ġremedi": 3023,
      "Ġbear": 3024,
      "ilence": 3025,
      "Ġnotice": 3026,
      "urity": 3027,
      "verage": 3028,
      "Ġlate": 3029,
      "Ġlose": 3030,
      "Ġsun": 3031,
      "Ġsudden": 3032,
      "Ġdoing": 3033,
      "uss": 3034,
      "Ġappreci": 3035,
      "aking": 3036,
      "Ġcharacters": 3037,
      "Ġcharacterises": 3038,
      "Ġcompens": 3039,
      "ptions": 3040,
      "Ġamenable": 3041,
      "Ġheard": 3042,
      "ths": 3043,
      "Ġconsideration": 3044,
      "Ġoutd": 3045,
      "Ġavailability": 3046,
      "Ġconflict": 3047,
      "Ġdiscuss": 3048,
      "ĠMany": 3049,
      "Ġsupply": 3050,
      "Ġseek": 3051,
      "Ġsafe": 3052,
      "Ġmonths": 3053,
      "Ġdepart": 3054,
      "Ġbegun": 3055,
      "Ġinterview": 3056,
      "ribute": 3057,
      "Ġnecessarily": 3058,
      "Ġillum": 3059,
      "Ġadvantage": 3060,
      "Ġlargely": 3061,
      "Ġunderestimate": 3062,
      "Ġprobably": 3063,
      "Ġconstructive": 3064,
      "Ġthinking": 3065,
      "Ġmeaning": 3066,
      "Ġeventually": 3067,
      "Ġbeginning": 3068,
      "Ġretained": 3069,
      "Ġjustification": 3070,
      "Ġidle": 3071,
      "Ġpatience": 3072,
      "Ġsurrounding": 3073,
      "Ġvaluable": 3074,
      "Ġpursued": 3075,
      "Ġobscurity": 3076,
      "Ġkeeping": 3077,
      "Ġinternally": 3078,
      "Ġurgently": 3079,
      "Ġpotential": 3080,
      "Ġinjustice": 3081,
      "Ġmurd": 3082,
      "Ġfuture": 3083,
      "Ġremedied": 3084,
      "ape": 3085,
      "cret": 3086,
      "dle": 3087,
      "Ġmid": 3088,
      "Ġgive": 3089,
      "Ġmyster": 3090,
      "abilities": 3091,
      "Ġsecret": 3092,
      "Ġshape": 3093,
      "Ġfirm": 3094,
      "Ġadvanced": 3095,
      "Ġpopular": 3096,
      "Ġsensational": 3097,
      "Ġenforce": 3098,
      "Ġbenefit": 3099,
      "Ġmiddle": 3100,
      "Ġmysterious": 3101,
      "bable": 3102,
      "oard": 3103,
      "oorb": 3104,
      "Ġtheory": 3105,
      "ert": 3106,
      "Ġanim": 3107,
      "Ġresemb": 3108,
      "Ġpersonal": 3109,
      "Ġservant": 3110,
      "Ġbrother": 3111,
      "Ġclaims": 3112,
      "Ġfloorb": 3113,
      "Ġimprobable": 3114,
      "ĠAsk": 3115,
      "Ġfloorboard": 3116,
      "Ġthing": 3117,
      "Ġage": 3118,
      "Ġfar": 3119,
      "action": 3120,
      "Ġgo": 3121,
      "ournal": 3122,
      "Ġfacts": 3123,
      "Ġjournal": 3124,
      "Ġconcealment": 3125,
      "Ġincons": 3126,
      "Ġproperty": 3127,
      "Ġdepends": 3128,
      "Ġinconsist": 3129,
      "ĠThen": 3130,
      "Cons": 3131,
      "What": 3132,
      "ax": 3133,
      "aid": 3134,
      "app": 3135,
      "aper": 3136,
      "acious": 3137,
      "aively": 3138,
      "be": 3139,
      "big": 3140,
      "bol": 3141,
      "bag": 3142,
      "cif": 3143,
      "cra": 3144,
      "cons": 3145,
      "cale": 3146,
      "dim": 3147,
      "dour": 3148,
      "dles": 3149,
      "drog": 3150,
      "ev": 3151,
      "ean": 3152,
      "four": 3153,
      "facial": 3154,
      "ftening": 3155,
      "gance": 3156,
      "gress": 3157,
      "gency": 3158,
      "gien": 3159,
      "hal": 3160,
      "hion": 3161,
      "hous": 3162,
      "hang": 3163,
      "house": 3164,
      "ium": 3165,
      "ius": 3166,
      "iance": 3167,
      "iated": 3168,
      "ioc": 3169,
      "iors": 3170,
      "iography": 3171,
      "ivers": 3172,
      "kn": 3173,
      "kets": 3174,
      "len": 3175,
      "lig": 3176,
      "lam": 3177,
      "lcome": 3178,
      "mud": 3179,
      "mong": 3180,
      "mber": 3181,
      "mitt": 3182,
      "mune": 3183,
      "mbol": 3184,
      "ners": 3185,
      "ox": 3186,
      "oes": 3187,
      "oid": 3188,
      "oper": 3189,
      "oose": 3190,
      "ps": 3191,
      "pis": 3192,
      "put": 3193,
      "poc": 3194,
      "paper": 3195,
      "ros": 3196,
      "rather": 3197,
      "rored": 3198,
      "sat": 3199,
      "spe": 3200,
      "sight": 3201,
      "scale": 3202,
      "to": 3203,
      "tal": 3204,
      "tent": 3205,
      "tted": 3206,
      "topped": 3207,
      "uin": 3208,
      "uous": 3209,
      "uel": 3210,
      "uitive": 3211,
      "vous": 3212,
      "visation": 3213,
      "yle": 3214,
      "yond": 3215,
      "ystem": 3216,
      "zens": 3217,
      "Ġ\"": 3218,
      "Ġign": 3219,
      "Ġurb": 3220,
      "Ġrad": 3221,
      "Ġrain": 3222,
      "Ġtal": 3223,
      "Ġtit": 3224,
      "Ġtas": 3225,
      "Ġtau": 3226,
      "Ġtigh": 3227,
      "Ġtribute": 3228,
      "Ġthus": 3229,
      "Ġacu": 3230,
      "Ġtheat": 3231,
      "inity": 3232,
      "inant": 3233,
      "inte": 3234,
      "inish": 3235,
      "inated": 3236,
      "inates": 3237,
      "inite": 3238,
      "inned": 3239,
      "Ġolf": 3240,
      "Ġodour": 3241,
      "rely": 3242,
      "reation": 3243,
      "reput": 3244,
      "atus": 3245,
      "ativeness": 3246,
      "atioc": 3247,
      "attent": 3248,
      "onated": 3249,
      "onists": 3250,
      "erved": 3251,
      "erstand": 3252,
      "ergency": 3253,
      "Ġcut": 3254,
      "Ġcra": 3255,
      "Ġcop": 3256,
      "Ġcru": 3257,
      "Ġcities": 3258,
      "Ġcounter": 3259,
      "Ġcease": 3260,
      "Ġsul": 3261,
      "Ġsch": 3262,
      "Ġsli": 3263,
      "Ġside": 3264,
      "Ġsake": 3265,
      "Ġwet": 3266,
      "Ġwarre": 3267,
      "Ġwider": 3268,
      "Ġple": 3269,
      "Ġpain": 3270,
      "Ġpens": 3271,
      "Ġpec": 3272,
      "Ġpick": 3273,
      "Ġpinned": 3274,
      "itate": 3275,
      "itect": 3276,
      "itative": 3277,
      "Ġinherent": 3278,
      "Ġinapp": 3279,
      "Ġinev": 3280,
      "icinity": 3281,
      "Ġmir": 3282,
      "Ġmant": 3283,
      "Ġmach": 3284,
      "Ġmount": 3285,
      "Ġmass": 3286,
      "edom": 3287,
      "Ġhard": 3288,
      "Ġhither": 3289,
      "Ġhob": 3290,
      "anch": 3291,
      "anions": 3292,
      "anically": 3293,
      "ancif": 3294,
      "Ġbased": 3295,
      "Ġbrain": 3296,
      "Ġbarre": 3297,
      "Ġbiological": 3298,
      "Ġdim": 3299,
      "Ġdense": 3300,
      "Ġdrow": 3301,
      "oring": 3302,
      "orly": 3303,
      "oration": 3304,
      "orate": 3305,
      "oud": 3306,
      "oust": 3307,
      "oute": 3308,
      "Ġfas": 3309,
      "Ġfil": 3310,
      "Ġfid": 3311,
      "Ġfire": 3312,
      "Ġfree": 3313,
      "Ġfairly": 3314,
      "Ġfuel": 3315,
      "Ġfancif": 3316,
      "arp": 3317,
      "aratus": 3318,
      "enty": 3319,
      "ented": 3320,
      "entle": 3321,
      "entious": 3322,
      "entives": 3323,
      "ctor": 3324,
      "ctional": 3325,
      "Ġtomor": 3326,
      "Ġtoday": 3327,
      "Ġtotal": 3328,
      "leys": 3329,
      "asi": 3330,
      "asur": 3331,
      "asure": 3332,
      "Ġredu": 3333,
      "Ġreag": 3334,
      "Ġrelying": 3335,
      "Ġrelevance": 3336,
      "Ġrede": 3337,
      "omed": 3338,
      "omising": 3339,
      "ominent": 3340,
      "veying": 3341,
      "verely": 3342,
      "Ġeart": 3343,
      "Ġepis": 3344,
      "sters": 3345,
      "stone": 3346,
      "stood": 3347,
      "Ġwhet": 3348,
      "Ġnon": 3349,
      "Ġnone": 3350,
      "Ġnorth": 3351,
      "Ġnaively": 3352,
      "imul": 3353,
      "imise": 3354,
      "iments": 3355,
      "imne": 3356,
      "imacy": 3357,
      "Ġbeard": 3358,
      "Ġbears": 3359,
      "Ġbeyond": 3360,
      "Ġisol": 3361,
      "second": 3362,
      "heres": 3363,
      "Ġprice": 3364,
      "Ġprior": 3365,
      "Ġprominent": 3366,
      "iform": 3367,
      "ifting": 3368,
      "otograph": 3369,
      "otely": 3370,
      "Ġconveying": 3371,
      "Ġhair": 3372,
      "estures": 3373,
      "erences": 3374,
      "ulity": 3375,
      "uliar": 3376,
      "actical": 3377,
      "actory": 3378,
      "isted": 3379,
      "istible": 3380,
      "Ġnotion": 3381,
      "Ġnoting": 3382,
      "Ġprogress": 3383,
      "Ġlitt": 3384,
      "Ġloses": 3385,
      "Ġlack": 3386,
      "Ġlines": 3387,
      "Ġloose": 3388,
      "Ġexcept": 3389,
      "Ġgas": 3390,
      "Ġgrow": 3391,
      "Ġgoing": 3392,
      "Ġglance": 3393,
      "Ġgentle": 3394,
      "Ġgestures": 3395,
      "cible": 3396,
      "ciously": 3397,
      "Ġforces": 3398,
      "raid": 3399,
      "rable": 3400,
      "owness": 3401,
      "ifications": 3402,
      "Ġassemble": 3403,
      "olar": 3404,
      "ersian": 3405,
      "ersonated": 3406,
      "Ġvast": 3407,
      "Ġvicinity": 3408,
      "chitect": 3409,
      "Ġwhole": 3410,
      "Ġinvested": 3411,
      "resistible": 3412,
      "ousers": 3413,
      "Ġchos": 3414,
      "Ġchore": 3415,
      "Ġchimne": 3416,
      "Ġriv": 3417,
      "Ġruin": 3418,
      "Ġratioc": 3419,
      "Ġroute": 3420,
      "Ġstain": 3421,
      "Ġstret": 3422,
      "Ġstep": 3423,
      "Ġstrad": 3424,
      "Ġstyle": 3425,
      "Ġstimul": 3426,
      "ours": 3427,
      "perience": 3428,
      "ldom": 3429,
      "Ġcast": 3430,
      "adox": 3431,
      "Ġleav": 3432,
      "ivity": 3433,
      "odes": 3434,
      "illiance": 3435,
      "Ġdozens": 3436,
      "Ġaccust": 3437,
      "outs": 3438,
      "Ġmoreover": 3439,
      "ght": 3440,
      "uscript": 3441,
      "aborate": 3442,
      "abouts": 3443,
      "osure": 3444,
      "osite": 3445,
      "osystem": 3446,
      "Ġphotograph": 3447,
      "Ġseverely": 3448,
      "Ġseldom": 3449,
      "Ġapparatus": 3450,
      "aked": 3451,
      "arial": 3452,
      "Ġnearly": 3453,
      "Ġrespond": 3454,
      "Ġresisted": 3455,
      "Ġdisreput": 3456,
      "anding": 3457,
      "Ġmeasur": 3458,
      "Ġalleys": 3459,
      "Ġimpr": 3460,
      "Ġimitation": 3461,
      "Ġimmune": 3462,
      "Ġimitate": 3463,
      "Ġsole": 3464,
      "Ġsoil": 3465,
      "Ġsoft": 3466,
      "Ġsoftening": 3467,
      "Ġsoaked": 3468,
      "Ġanywhere": 3469,
      "Ġmanners": 3470,
      "Ġmanuscript": 3471,
      "uretted": 3472,
      "Ġcompanions": 3473,
      "Ġbecome": 3474,
      "inement": 3475,
      "Ġdistant": 3476,
      "Ġdistributed": 3477,
      "orted": 3478,
      "ultory": 3479,
      "Ġinformativeness": 3480,
      "Ġrecond": 3481,
      "Ġrecover": 3482,
      "Ġrecreation": 3483,
      "Ġinterior": 3484,
      "Ġintermitt": 3485,
      "ried": 3486,
      "Ġpretens": 3487,
      "Ġsymbol": 3488,
      "Ġquasi": 3489,
      "Ġworry": 3490,
      "Ġtrail": 3491,
      "Ġtrays": 3492,
      "Ġtravel": 3493,
      "Ġtraject": 3494,
      "tained": 3495,
      "Ġdesultory": 3496,
      "Ġintact": 3497,
      "Ġintimate": 3498,
      "Ġintuitive": 3499,
      "Ġintimacy": 3500,
      "iciency": 3501,
      "ffling": 3502,
      "Ġundifferent": 3503,
      "Ġcontrib": 3504,
      "Ġcontributed": 3505,
      "Ġsubstances": 3506,
      "Ġadvers": 3507,
      "Ġadjust": 3508,
      "Ġadheres": 3509,
      "Ġsocially": 3510,
      "Ġentertain": 3511,
      "Ġparticulars": 3512,
      "Ġparticularly": 3513,
      "Ġgenerate": 3514,
      "uster": 3515,
      "Ġpreserved": 3516,
      "Ġbetray": 3517,
      "xture": 3518,
      "Ġemergency": 3519,
      "Ġtrick": 3520,
      "Ġtrousers": 3521,
      "Ġseries": 3522,
      "Ġserves": 3523,
      "Ġarising": 3524,
      "Ġarray": 3525,
      "Ġarchitect": 3526,
      "wear": 3527,
      "wells": 3528,
      "welcome": 3529,
      "ĠAmong": 3530,
      "Ġunderlying": 3531,
      "Ġundergoing": 3532,
      "Ġunderstood": 3533,
      "oking": 3534,
      "Ġunable": 3535,
      "Ġunpr": 3536,
      "Ġunne": 3537,
      "Ġunivers": 3538,
      "Ġuninte": 3539,
      "Ġuniform": 3540,
      "Ġunwelcome": 3541,
      "Ġambig": 3542,
      "Ġclay": 3543,
      "Ġcloud": 3544,
      "Ġcluster": 3545,
      "Ġwear": 3546,
      "Ġweath": 3547,
      "Ġscrap": 3548,
      "Ġscale": 3549,
      "Ġformal": 3550,
      "Ġformally": 3551,
      "Ġindiscrim": 3552,
      "Ġpoorly": 3553,
      "Ġwhereabouts": 3554,
      "Ġordinarily": 3555,
      "Ġowners": 3556,
      "Ġdirections": 3557,
      "Ġshort": 3558,
      "Ġshows": 3559,
      "Ġsharp": 3560,
      "Ġshifting": 3561,
      "Ġoperate": 3562,
      "Ġhumanity": 3563,
      "cessary": 3564,
      "Ġtruths": 3565,
      "Ġavoid": 3566,
      "lligible": 3567,
      "Ġhandbag": 3568,
      "elity": 3569,
      "elty": 3570,
      "elpiece": 3571,
      "Ġoverhang": 3572,
      "Ġoversight": 3573,
      "Ġnoise": 3574,
      "Ġrelation": 3575,
      "Ġrelax": 3576,
      "Ġinstitution": 3577,
      "Ġaccountability": 3578,
      "Ġcoals": 3579,
      "Ġcooper": 3580,
      "Ġextended": 3581,
      "Ġextends": 3582,
      "Ġtypeface": 3583,
      "Ġtypefaces": 3584,
      "Ġrefuses": 3585,
      "Ġrefinement": 3586,
      "ensional": 3587,
      "Ġlegible": 3588,
      "Ġexploration": 3589,
      "Ġarrive": 3590,
      "Ġarrived": 3591,
      "Ġacoust": 3592,
      "Ġfew": 3593,
      "Ġfellow": 3594,
      "Ġfeared": 3595,
      "Ġpresenting": 3596,
      "Ġengaging": 3597,
      "Ġabsences": 3598,
      "Ġsubjecting": 3599,
      "Ġrepay": 3600,
      "Ġrepays": 3601,
      "Ġreporter": 3602,
      "Ġexpans": 3603,
      "Ġexposure": 3604,
      "Ġexpanding": 3605,
      "Ġjack": 3606,
      "Ġtests": 3607,
      "Ġsurfaces": 3608,
      "Ġdemean": 3609,
      "Ġorganically": 3610,
      "Ġbranch": 3611,
      "Ġbrilliance": 3612,
      "Ġimportance": 3613,
      "Ġcleared": 3614,
      "Ġlarger": 3615,
      "Ġentering": 3616,
      "Ġtwenty": 3617,
      "Ġforgers": 3618,
      "Ġorganiser": 3619,
      "Ġoffensive": 3620,
      "Ġfrauds": 3621,
      "Ġfraudsters": 3622,
      "Ġoblig": 3623,
      "Ġobtained": 3624,
      "Ġsigns": 3625,
      "Ġsignals": 3626,
      "Ġreliance": 3627,
      "Ġskin": 3628,
      "Ġmaintains": 3629,
      "Ġprocessing": 3630,
      "Ġactively": 3631,
      "Ġopposition": 3632,
      "Ġopposite": 3633,
      "Ġsupposed": 3634,
      "Ġsupported": 3635,
      "Ġimpose": 3636,
      "Ġimpenet": 3637,
      "Ġimpersonated": 3638,
      "ostic": 3639,
      "Ġeffectiveness": 3640,
      "Ġevening": 3641,
      "Ġenvironmental": 3642,
      "Ġattentive": 3643,
      "Ġattentions": 3644,
      "Ġtexts": 3645,
      "Ġcontinues": 3646,
      "Ġcontinuing": 3647,
      "Ġdetermined": 3648,
      "Ġmisund": 3649,
      "Ġfailing": 3650,
      "Ġenterprises": 3651,
      "Ġaccurately": 3652,
      "Ġsecondhand": 3653,
      "Ġfinance": 3654,
      "Ġelegance": 3655,
      "Ġinsist": 3656,
      "Ġinsulation": 3657,
      "Ġinsights": 3658,
      "Ġrespected": 3659,
      "Ġrespectability": 3660,
      "Ġhydrog": 3661,
      "Ġhygien": 3662,
      "Ġincentives": 3663,
      "Ġirresistible": 3664,
      "Ġworlds": 3665,
      "Ġwellbe": 3666,
      "Ġsciences": 3667,
      "Ġecosystem": 3668,
      "Ġaltering": 3669,
      "Ġconscientious": 3670,
      "Ġinfinite": 3671,
      "Ġinferences": 3672,
      "Ġnaturalist": 3673,
      "Ġpaid": 3674,
      "Ġlevels": 3675,
      "Ġsatisfy": 3676,
      "Ġexpressed": 3677,
      "Ġnarrows": 3678,
      "Ġobjectivity": 3679,
      "Ġoccupation": 3680,
      "Ġtobacconists": 3681,
      "Ġfootwear": 3682,
      "Ġextracting": 3683,
      "worn": 3684,
      "Ġshelf": 3685,
      "Ġshoulders": 3686,
      "Ġpassion": 3687,
      "Ġpassage": 3688,
      "Ġmuffling": 3689,
      "Ġadds": 3690,
      "Ġsimilarly": 3691,
      "Ġfreedom": 3692,
      "Ġinks": 3693,
      "Ġinkwells": 3694,
      "Ġinhabited": 3695,
      "Ġappropriately": 3696,
      "Ġcontrollable": 3697,
      "Ġregularisation": 3698,
      "Ġfabrics": 3699,
      "Ġreceives": 3700,
      "Ġhoning": 3701,
      "Ġmodes": 3702,
      "Ġmodifications": 3703,
      "Ġsmoking": 3704,
      "Ġproven": 3705,
      "Ġprovide": 3706,
      "Ġexploited": 3707,
      "Ġspecialised": 3708,
      "Ġdominate": 3709,
      "Ġdominant": 3710,
      "Ġdiscovering": 3711,
      "Ġcommercially": 3712,
      "Ġleads": 3713,
      "Ġdealer": 3714,
      "Ġorderly": 3715,
      "Ġwishes": 3716,
      "Ġwished": 3717,
      "Ġcapacious": 3718,
      "knowledge": 3719,
      "Ġanxieties": 3720,
      "Ġinhabiting": 3721,
      "Ġafraid": 3722,
      "Ġfollows": 3723,
      "Ġfollowing": 3724,
      "Ġnecessary": 3725,
      "Ġillness": 3726,
      "ĠNove": 3727,
      "Ġuncons": 3728,
      "Ġhonesty": 3729,
      "Ġmedium": 3730,
      "Ġmusic": 3731,
      "Ġmusical": 3732,
      "Ġmusician": 3733,
      "Ġlabours": 3734,
      "productive": 3735,
      "Ġremotely": 3736,
      "Ġlogic": 3737,
      "Ġsimple": 3738,
      "Ġversat": 3739,
      "ĠOn": 3740,
      "Ġdefend": 3741,
      "Ġdefended": 3742,
      "Ġdeficiency": 3743,
      "Ġburning": 3744,
      "Ġgeological": 3745,
      "Ġrigour": 3746,
      "Ġconcentration": 3747,
      "Ġinexperience": 3748,
      "Ġplanner": 3749,
      "Ġplanning": 3750,
      "Ġorganisational": 3751,
      "Ġfundamentally": 3752,
      "Ġrecurrent": 3753,
      "Ġmulti": 3754,
      "Ġwindows": 3755,
      "Ġauthoritative": 3756,
      "Ġseparating": 3757,
      "Ġroutes": 3758,
      "Ġadmiration": 3759,
      "Ġsubstitution": 3760,
      "Ġblood": 3761,
      "Ġresolution": 3762,
      "Ġlocated": 3763,
      "Ġburied": 3764,
      "Ġburden": 3765,
      "Ġburgl": 3766,
      "Ġfunctional": 3767,
      "Ġreproducible": 3768,
      "Ġcomfortingly": 3769,
      "Ġchoice": 3770,
      "Ġarrangements": 3771,
      "Ġnavigation": 3772,
      "Ġnavigate": 3773,
      "Ġnavigable": 3774,
      "Ġcares": 3775,
      "Ġcauses": 3776,
      "Ġmarket": 3777,
      "Ġmarkers": 3778,
      "Ġchairs": 3779,
      "Ġrecognise": 3780,
      "Ġrecognition": 3781,
      "Ġpredictability": 3782,
      "Ġcommitments": 3783,
      "Ġconfusing": 3784,
      "Ġwomen": 3785,
      "Ġminority": 3786,
      "Ġminimise": 3787,
      "nsic": 3788,
      "Ġautonomic": 3789,
      "Ġautob": 3790,
      "Ġautomatic": 3791,
      "Ġcentre": 3792,
      "Ġbodily": 3793,
      "Ġfurnace": 3794,
      "Ġaccompan": 3795,
      "Ġreconstruct": 3796,
      "Ġpuzzle": 3797,
      "Ġsuppression": 3798,
      "Ġmetropolis": 3799,
      "Ġmatches": 3800,
      "Ġmatching": 3801,
      "Ġvoluntary": 3802,
      "Ġrigorously": 3803,
      "Ġcultivated": 3804,
      "Ġsettings": 3805,
      "Ġsettling": 3806,
      "Ġprovided": 3807,
      "Ġmixture": 3808,
      "Ġperpetually": 3809,
      "Ġscruples": 3810,
      "Ġbuildings": 3811,
      "Ġtransport": 3812,
      "Ġtransformation": 3813,
      "Ġerrors": 3814,
      "Ġanswerable": 3815,
      "Ġviews": 3816,
      "Ġpreventing": 3817,
      "Ġflaw": 3818,
      "Ġneighbourhood": 3819,
      "ĠDoctor": 3820,
      "Ġelaborate": 3821,
      "Ġassembly": 3822,
      "Ġsuperiors": 3823,
      "Ġpreparations": 3824,
      "Ġpressures": 3825,
      "Ġpermit": 3826,
      "Ġfaculty": 3827,
      "Ġsurvey": 3828,
      "ĠPeople": 3829,
      "ĠPersian": 3830,
      "Ġdeduce": 3831,
      "Ġnervous": 3832,
      "Ġlighting": 3833,
      "Ġstoring": 3834,
      "Ġcompetent": 3835,
      "Ġcompeting": 3836,
      "Ġcontrast": 3837,
      "Ġdistinctly": 3838,
      "Ġrevealing": 3839,
      "Ġrapidly": 3840,
      "Ġvictims": 3841,
      "Ġdisruption": 3842,
      "Ġidlen": 3843,
      "Ġpatient": 3844,
      "Ġsurroundings": 3845,
      "Ġvalues": 3846,
      "Ġpreferred": 3847,
      "Ġorigins": 3848,
      "Ġenforced": 3849,
      "Ġimprovisation": 3850,
      "Ġretros": 3851,
      "smoke": 3852,
      "smokers": 3853,
      "Ġcredibility": 3854,
      "Ġcredulity": 3855,
      "Ġwalls": 3856,
      "Ġwallpaper": 3857,
      "Ġbreath": 3858,
      "Ġbreathing": 3859,
      "Ġtopography": 3860,
      "Ġtopics": 3861,
      "Ġtools": 3862,
      "Ġlayer": 3863,
      "Ġlayers": 3864,
      "Ġvocal": 3865,
      "Ġvocation": 3866,
      "Ġalongside": 3867,
      "Ġdesigned": 3868,
      "Ġcontamination": 3869,
      "Ġcontaminated": 3870,
      "Ġentangled": 3871,
      "Ġentanglement": 3872,
      "Ġindirectly": 3873,
      "Ġshallowness": 3874,
      "Ġdegraded": 3875,
      "Ġdegradation": 3876,
      "Ġcollision": 3877,
      "Ġcolliding": 3878,
      "Ġabsorbed": 3879,
      "Ġexperimental": 3880,
      "Ġincidents": 3881,
      "Ġshelter": 3882,
      "Ġshelves": 3883,
      "Ġtrusted": 3884,
      "Ġacquisition": 3885,
      "Ġacquisitive": 3886,
      "Ġacquired": 3887,
      "Ġcentury": 3888,
      "Ġcenturies": 3889,
      "Ġsuccessfully": 3890,
      "Ġaccomplished": 3891,
      "Ġaccomplishment": 3892,
      "Ġcatalogues": 3893,
      "Ġcataloguing": 3894,
      "Ġstandards": 3895,
      "Ġsympathy": 3896,
      "Ġsympathies": 3897,
      "Ġinsufficient": 3898,
      "Ġinsufficiently": 3899,
      "Ġliterally": 3900,
      "Ġcomplicated": 3901,
      "Ġsubmitting": 3902,
      "Ġadopting": 3903,
      "Ġexplicitly": 3904,
      "Ġassumed": 3905,
      "Ġmarginal": 3906,
      "ckers": 3907,
      "Ġpoisoners": 3908,
      "Ġalternatively": 3909,
      "inery": 3910,
      "Ġparadox": 3911,
      "Ġmanufacturing": 3912,
      "Ġencode": 3913,
      "Ġfriendship": 3914,
      "Ġwanted": 3915,
      "Ġmajor": 3916,
      "Ġconsequences": 3917,
      "Ġconcerns": 3918,
      "Ġmotivated": 3919,
      "phuretted": 3920,
      "Ġedges": 3921,
      "Ġthirty": 3922,
      "Ġcarried": 3923,
      "Ġcreates": 3924,
      "Ġsanitation": 3925,
      "Ġsamples": 3926,
      "Ġboots": 3927,
      "Ġitems": 3928,
      "Ġpropose": 3929,
      "Ġpersistence": 3930,
      "Ġimplications": 3931,
      "Ġunfairly": 3932,
      "Ġperceive": 3933,
      "Ġobviously": 3934,
      "Ġreceiver": 3935,
      "Ġarticulation": 3936,
      "Ġmuscular": 3937,
      "Ġacknowledged": 3938,
      "Ġdiagnostic": 3939,
      "Ġforensic": 3940,
      "Ġappreciate": 3941,
      "Ġdeparture": 3942,
      "Ġilluminates": 3943,
      "Consider": 3944,
      "crackers": 3945,
      "conscious": 3946,
      "dimensional": 3947,
      "haloes": 3948,
      "houses": 3949,
      "knife": 3950,
      "lamps": 3951,
      "pockets": 3952,
      "speaking": 3953,
      "Ġignoring": 3954,
      "Ġurban": 3955,
      "Ġradius": 3956,
      "Ġtalented": 3957,
      "Ġtitles": 3958,
      "Ġtask": 3959,
      "Ġtaught": 3960,
      "Ġtightening": 3961,
      "Ġacuity": 3962,
      "Ġtheatre": 3963,
      "inished": 3964,
      "Ġolfactory": 3965,
      "attentive": 3966,
      "erstanding": 3967,
      "Ġcraft": 3968,
      "Ġcopy": 3969,
      "Ġcruelty": 3970,
      "Ġcounterproductive": 3971,
      "Ġsulphuretted": 3972,
      "Ġscholar": 3973,
      "Ġslipper": 3974,
      "Ġsideways": 3975,
      "Ġwarrens": 3976,
      "Ġpleasure": 3977,
      "Ġpainful": 3978,
      "Ġpeculiar": 3979,
      "Ġpickpockets": 3980,
      "Ġinappropriate": 3981,
      "Ġinevitable": 3982,
      "Ġmirrored": 3983,
      "Ġmantelpiece": 3984,
      "Ġmachinery": 3985,
      "Ġmounted": 3986,
      "Ġharder": 3987,
      "Ġhitherto": 3988,
      "Ġhobby": 3989,
      "Ġbarren": 3990,
      "Ġdiminished": 3991,
      "Ġdensely": 3992,
      "Ġdrowned": 3993,
      "Ġfashion": 3994,
      "Ġfiles": 3995,
      "Ġfidelity": 3996,
      "Ġfireplace": 3997,
      "Ġfanciful": 3998,
      "Ġtomorrow": 3999,
      "Ġreduce": 4000,
      "Ġreagent": 4001,
      "Ġredeem": 4002,
      "Ġearth": 4003,
      "Ġepisodes": 4004,
      "Ġwhetstone": 4005,
      "Ġisolated": 4006,
      "Ġlittle": 4007,
      "Ġloosely": 4008,
      "Ġgrown": 4009,
      "Ġchosen": 4010,
      "Ġchoreography": 4011,
      "Ġchimney": 4012,
      "Ġrival": 4013,
      "Ġratiocination": 4014,
      "Ġstains": 4015,
      "Ġstretch": 4016,
      "Ġstraddles": 4017,
      "Ġstimuli": 4018,
      "Ġleaving": 4019,
      "Ġaccustomed": 4020,
      "Ġphotographic": 4021,
      "Ġresponding": 4022,
      "Ġdisreputable": 4023,
      "Ġmeasurably": 4024,
      "Ġimpractical": 4025,
      "Ġrecondite": 4026,
      "Ġrecoverable": 4027,
      "Ġintermittent": 4028,
      "Ġpretensions": 4029,
      "Ġsymbolic": 4030,
      "Ġtravels": 4031,
      "Ġtrajectory": 4032,
      "Ġundifferentiated": 4033,
      "Ġcontribution": 4034,
      "Ġadversarial": 4035,
      "Ġunpromising": 4036,
      "Ġunnecessary": 4037,
      "Ġuniversally": 4038,
      "Ġunintelligible": 4039,
      "Ġambiguous": 4040,
      "Ġweathers": 4041,
      "Ġscraping": 4042,
      "Ġindiscriminate": 4043,
      "Ġoverhangs": 4044,
      "Ġrelaxation": 4045,
      "Ġcooperation": 4046,
      "Ġacoustic": 4047,
      "Ġexpansion": 4048,
      "Ġdemeanour": 4049,
      "Ġobligation": 4050,
      "Ġimpenetrable": 4051,
      "Ġmisunderstanding": 4052,
      "Ġhydrogen": 4053,
      "Ġhygienic": 4054,
      "Ġwellbeing": 4055,
      "Ġinfinitely": 4056,
      "ĠNovember": 4057,
      "Ġunconsciously": 4058,
      "Ġversatility": 4059,
      "Ġburglars": 4060,
      "Ġautobiography": 4061,
      "Ġaccompaniments": 4062,
      "Ġneighbourhoods": 4063,
      "Ġidleness": 4064,
      "Ġretrospect": 4065,
      "Ġparadoxically": 4066,
      "At": 4067,
      "But": 4068,
      "acu": 4069,
      "aited": 4070,
      "cl": 4071,
      "com": 4072,
      "gth": 4073,
      "hes": 4074,
      "ipe": 4075,
      "iences": 4076,
      "lay": 4077,
      "pub": 4078,
      "rate": 4079,
      "rregular": 4080,
      "sper": 4081,
      "uble": 4082,
      "uch": 4083,
      "xim": 4084,
      "Ġtast": 4085,
      "ins": 4086,
      "information": 4087,
      "rer": 4088,
      "rete": 4089,
      "erous": 4090,
      "ength": 4091,
      "Ġsqu": 4092,
      "Ġsilence": 4093,
      "Ġwarm": 4094,
      "Ġwait": 4095,
      "Ġwaited": 4096,
      "Ġped": 4097,
      "Ġpale": 4098,
      "Ġpipe": 4099,
      "itations": 4100,
      "Ġinten": 4101,
      "Ġinacc": 4102,
      "Ġintens": 4103,
      "icul": 4104,
      "icated": 4105,
      "Ġhans": 4106,
      "Ġbread": 4107,
      "Ġdue": 4108,
      "Ġdark": 4109,
      "Ġdrew": 4110,
      "Ġfence": 4111,
      "Ġtoler": 4112,
      "sted": 4113,
      "Ġnet": 4114,
      "Ġnights": 4115,
      "Ġbell": 4116,
      "etition": 4117,
      "ĠIrregular": 4118,
      "estri": 4119,
      "erer": 4120,
      "Ġprosper": 4121,
      "Ġproxim": 4122,
      "urate": 4123,
      "Ġlow": 4124,
      "Ġlens": 4125,
      "Ġlength": 4126,
      "Ġgives": 4127,
      "ciological": 4128,
      "Ġusel": 4129,
      "nthes": 4130,
      "oluble": 4131,
      "Ġvind": 4132,
      "Ġvacu": 4133,
      "Ġtheirs": 4134,
      "Ġchest": 4135,
      "Ġstates": 4136,
      "Ġstairs": 4137,
      "Ġleverage": 4138,
      "Ġenquir": 4139,
      "plest": 4140,
      "Ġpractising": 4141,
      "Ġseason": 4142,
      "Ġactions": 4143,
      "Ġtheme": 4144,
      "andered": 4145,
      "Ġsociological": 4146,
      "Ġmanaging": 4147,
      "Ġteach": 4148,
      "Ġdistru": 4149,
      "Ġinformal": 4150,
      "Ġinforming": 4151,
      "Ġinterface": 4152,
      "Ġsynthes": 4153,
      "Ġreaders": 4154,
      "Ġgenerating": 4155,
      "Ġplaced": 4156,
      "Ġunpub": 4157,
      "Ġwherever": 4158,
      "Ġshap": 4159,
      "Ġshorter": 4160,
      "Ġoperated": 4161,
      "Ġobservers": 4162,
      "Ġthroughout": 4163,
      "Ġsimplest": 4164,
      "Ġoverlay": 4165,
      "Ġconcrete": 4166,
      "Ġframing": 4167,
      "Ġidentified": 4168,
      "Ġexample": 4169,
      "Ġdescending": 4170,
      "etime": 4171,
      "Ġconfident": 4172,
      "Ġconfined": 4173,
      "ĠSuch": 4174,
      "Ġfactual": 4175,
      "ologies": 4176,
      "Ġrepetition": 4177,
      "Ġexpense": 4178,
      "Ġexposition": 4179,
      "Ġdistinguished": 4180,
      "Ġclean": 4181,
      "Ġdescribe": 4182,
      "Ġcourses": 4183,
      "Ġcommonly": 4184,
      "Ġcommunity": 4185,
      "Ġsolved": 4186,
      "Ġallowing": 4187,
      "Ġskills": 4188,
      "Ġmisinformation": 4189,
      "Ġmeticul": 4190,
      "Ġviolent": 4191,
      "Ġviolence": 4192,
      "Ġinsoluble": 4193,
      "Ġecologies": 4194,
      "Ġnumerous": 4195,
      "Ġoccupied": 4196,
      "Ġsoundness": 4197,
      "Ġpassing": 4198,
      "arkably": 4199,
      "Ġadditions": 4200,
      "Ġinstruction": 4201,
      "Ġspecialist": 4202,
      "Ġsomewhere": 4203,
      "ĠEach": 4204,
      "Ġemployed": 4205,
      "Ġdesperation": 4206,
      "Ġdemonstration": 4207,
      "Ġdemonstrated": 4208,
      "Ġlimitations": 4209,
      "Ġsuggested": 4210,
      "Ġremarkably": 4211,
      "Ġembedded": 4212,
      "ĠOf": 4213,
      "Ġlearned": 4214,
      "Ġseemed": 4215,
      "Ġplanned": 4216,
      "Ġrecurrence": 4217,
      "Ġauthority": 4218,
      "Ġauthorities": 4219,
      "Ġindividuals": 4220,
      "Ġcabs": 4221,
      "Ġmarkets": 4222,
      "Ġendless": 4223,
      "Ġrecognised": 4224,
      "Ġpredictive": 4225,
      "Ġaudiences": 4226,
      "Ġinductive": 4227,
      "Ġsettled": 4228,
      "Ġwealthy": 4229,
      "Ġunderestimated": 4230,
      "Ġslum": 4231,
      "Ġpermitting": 4232,
      "Ġtreatment": 4233,
      "Ġtreatises": 4234,
      "Ġcurious": 4235,
      "Ġincrement": 4236,
      "Ġoriginating": 4237,
      "Ġpursue": 4238,
      "Ġcalculated": 4239,
      "Ġaimed": 4240,
      "Ġrewarded": 4241,
      "Ġliterary": 4242,
      "Ġforthcom": 4243,
      "Ġcomplications": 4244,
      "Ġaspects": 4245,
      "Ġsubmits": 4246,
      "Ġadopted": 4247,
      "Ġexplicable": 4248,
      "Ġfocused": 4249,
      "Ġassumptions": 4250,
      "Ġmargins": 4251,
      "Ġraw": 4252,
      "Ġrarer": 4253,
      "Ġlifted": 4254,
      "Ġlifetime": 4255,
      "Ġillustration": 4256,
      "Ġillustrate": 4257,
      "Ġscrupulous": 4258,
      "Ġscrupulously": 4259,
      "Ġvulnerabilities": 4260,
      "Ġturned": 4261,
      "Ġinstincts": 4262,
      "ĠSomewhere": 4263,
      "Ġchallenges": 4264,
      "Ġthreats": 4265,
      "Ġboundary": 4266,
      "Ġcompensatory": 4267,
      "Ġoutdated": 4268,
      "Ġmurderer": 4269,
      "Ġsecrets": 4270,
      "Ġenforcement": 4271,
      "class": 4272,
      "Ġtastes": 4273,
      "Ġsquandered": 4274,
      "Ġwarmer": 4275,
      "Ġwaiting": 4276,
      "Ġpedestri": 4277,
      "Ġintense": 4278,
      "Ġinaccurate": 4279,
      "Ġintensive": 4280,
      "Ġhansom": 4281,
      "Ġbreadth": 4282,
      "Ġdarkness": 4283,
      "Ġtolerably": 4284,
      "Ġnetwork": 4285,
      "ĠIrregulars": 4286,
      "Ġprosperity": 4287,
      "Ġproximity": 4288,
      "Ġlower": 4289,
      "Ġuseless": 4290,
      "Ġvindicated": 4291,
      "Ġvacuum": 4292,
      "Ġenquiries": 4293,
      "Ġseasons": 4294,
      "Ġteaching": 4295,
      "Ġdistrusted": 4296,
      "Ġsynthesis": 4297,
      "Ġunpublished": 4298,
      "Ġshaped": 4299,
      "Ġmeticulous": 4300,
      "Ġforthcoming": 4301,
      "Ġpedestrians": 4302,
      "hold": 4303,
      "ope": 4304,
      "oint": 4305,
      "ĠF": 4306,
      "Ġide": 4307,
      "erm": 4308,
      "esc": 4309,
      "itor": 4310,
      "icion": 4311,
      "icitor": 4312,
      "Ġden": 4313,
      "Ġdid": 4314,
      "Ġrest": 4315,
      "held": 4316,
      "ute": 4317,
      "Ġwithheld": 4318,
      "olver": 4319,
      "Ġspecifics": 4320,
      "Ġstore": 4321,
      "ired": 4322,
      "Ġsearch": 4323,
      "Ġdisplace": 4324,
      "Ġcane": 4325,
      "Ġenters": 4326,
      "Ġunknow": 4327,
      "Ġheir": 4328,
      "ĠLet": 4329,
      "ĠBring": 4330,
      "Ġsuspects": 4331,
      "Ġestate": 4332,
      "Ġsolicitor": 4333,
      "Ġdiscovery": 4334,
      "Ġindicates": 4335,
      "Ġclaimant": 4336,
      "Ġdemonstrate": 4337,
      "Ġinterval": 4338,
      "ĠNow": 4339,
      "Ġuncle": 4340,
      "Ġverif": 4341,
      "Ġhousehold": 4342,
      "Ġprevious": 4343,
      "Ġsuspicion": 4344,
      "Ġobscure": 4345,
      "Ġweeks": 4346,
      "Ġrevolver": 4347,
      "Ġguilt": 4348,
      "Ġanimal": 4349,
      "Ġfloorboards": 4350,
      "Ġidea": 4351,
      "Ġdisplacement": 4352,
      "Ġunknown": 4353,
      "lim": 4354,
      "atist": 4355,
      "Ġstatist": 4356,
      "ĠWas": 4357,
      "ĠWere": 4358,
      "arrass": 4359,
      "Ġsatisfied": 4360,
      "Ġdealing": 4361,
      "Ġembarrass": 4362,
      "ĠWhen": 4363,
      "Ġstatistical": 4364,
      "aled": 4365,
      "Ġground": 4366,
      "raint": 4367,
      "ĠBe": 4368,
      "Ġgrounds": 4369,
      "orical": 4370,
      "ĠCases": 4371,
      "Ġacceptable": 4372,
      "apon": 4373,
      "bal": 4374,
      "ealog": 4375,
      "gle": 4376,
      "iation": 4377,
      "lace": 4378,
      "overy": 4379,
      "pared": 4380,
      "ron": 4381,
      "uct": 4382,
      "viation": 4383,
      "wo": 4384,
      "xte": 4385,
      "ĠG": 4386,
      "ĠR": 4387,
      "Ġterm": 4388,
      "Ġaff": 4389,
      "Ġappeared": 4390,
      "inist": 4391,
      "ature": 4392,
      "onerate": 4393,
      "enci": 4394,
      "Ġcav": 4395,
      "Ġson": 4396,
      "Ġsending": 4397,
      "Ġwound": 4398,
      "alry": 4399,
      "Ġingest": 4400,
      "Ġangle": 4401,
      "Ġmine": 4402,
      "Ġhope": 4403,
      "Ġbir": 4404,
      "Ġback": 4405,
      "Ġdur": 4406,
      "Ġfled": 4407,
      "armed": 4408,
      "Ġreass": 4409,
      "Ġreplic": 4410,
      "stance": 4411,
      "Ġnight": 4412,
      "Ġhaving": 4413,
      "ulse": 4414,
      "ulate": 4415,
      "Ġprove": 4416,
      "Ġproof": 4417,
      "ural": 4418,
      "urance": 4419,
      "Ġlink": 4420,
      "Ġexonerate": 4421,
      "Ġget": 4422,
      "quence": 4423,
      "Ġdeviation": 4424,
      "Ġriding": 4425,
      "Ġstr": 4426,
      "antry": 4427,
      "Ġyes": 4428,
      "Ġenem": 4429,
      "iving": 4430,
      "Ġgenealog": 4431,
      "Ġselect": 4432,
      "Ġsequence": 4433,
      "Ġphysician": 4434,
      "Ġneck": 4435,
      "Ġdisease": 4436,
      "Ġpartial": 4437,
      "Ġimag": 4438,
      "Ġrecovery": 4439,
      "Ġknowable": 4440,
      "Ġprepared": 4441,
      "Ġquick": 4442,
      "Ġabove": 4443,
      "Ġintent": 4444,
      "Ġsystems": 4445,
      "ĠTwo": 4446,
      "ĠAl": 4447,
      "Ġpurch": 4448,
      "Ġweapon": 4449,
      "ĠThose": 4450,
      "Ġformed": 4451,
      "iction": 4452,
      "Ġowned": 4453,
      "ribe": 4454,
      "ertainty": 4455,
      "Ġrelated": 4456,
      "Ġreluct": 4457,
      "Ġrefined": 4458,
      "ensible": 4459,
      "Ġconstrained": 4460,
      "Ġexaminer": 4461,
      "Ġacute": 4462,
      "Ġassert": 4463,
      "Ġoccurring": 4464,
      "ĠSh": 4465,
      "Ġcircumstance": 4466,
      "ĠMore": 4467,
      "Ġdisappears": 4468,
      "Ġimpulse": 4469,
      "ĠCan": 4470,
      "Ġcommunicated": 4471,
      "Ġsecondary": 4472,
      "Ġuses": 4473,
      "Ġconviction": 4474,
      "Ġinfantry": 4475,
      "Ġfabrication": 4476,
      "Ġclaimed": 4477,
      "Ġemployer": 4478,
      "Ġcontexts": 4479,
      "Ġsimilarities": 4480,
      "Ġadminist": 4481,
      "Ġfunds": 4482,
      "Ġfollowed": 4483,
      "Ġsuggesting": 4484,
      "Ġuncertainty": 4485,
      "Ġsensitive": 4486,
      "ĠDesc": 4487,
      "Ġhiding": 4488,
      "Ġapplicable": 4489,
      "Ġexterior": 4490,
      "Ġpreference": 4491,
      "Ġflight": 4492,
      "ĠDoes": 4493,
      "Ġsixte": 4494,
      "Ġgathering": 4495,
      "Ġconnection": 4496,
      "Ġconnecting": 4497,
      "Ġimpression": 4498,
      "Ġcalculation": 4499,
      "Ġcalculate": 4500,
      "Ġconfirm": 4501,
      "Ġconvincingly": 4502,
      "Ġvulnerability": 4503,
      "Ġdecision": 4504,
      "Ġmanufacture": 4505,
      "Ġinstinct": 4506,
      "Ġchallenged": 4507,
      "Ġrevision": 4508,
      "Ġguilty": 4509,
      "Ġresemblance": 4510,
      "Ġservants": 4511,
      "Ġdeny": 4512,
      "Ġembarrassment": 4513,
      "ronic": 4514,
      "Ġaffairs": 4515,
      "encies": 4516,
      "Ġcavalry": 4517,
      "Ġingestion": 4518,
      "Ġbirth": 4519,
      "Ġduration": 4520,
      "Ġenemy": 4521,
      "Ġgenealogical": 4522,
      "Ġnecklace": 4523,
      "Ġquickly": 4524,
      "Ġreluctance": 4525,
      "Ġadministration": 4526,
      "ĠDescribe": 4527,
      "Ġsixteen": 4528,
      "eve": 4529,
      "use": 4530,
      "ening": 4531,
      "Ġwarr": 4532,
      "itors": 4533,
      "Ġconvers": 4534,
      "utes": 4535,
      "Ġongoing": 4536,
      "ivial": 4537,
      "Ġinvestigated": 4538,
      "ailable": 4539,
      "rieve": 4540,
      "Ġprem": 4541,
      "Ġprelim": 4542,
      "Ġtrivial": 4543,
      "ager": 4544,
      "Ġoutcome": 4545,
      "Ġassume": 4546,
      "Ġfactor": 4547,
      "Ġvisitors": 4548,
      "ructive": 4549,
      "eping": 4550,
      "Ġdetermines": 4551,
      "Ġusually": 4552,
      "Ġasked": 4553,
      "Ġregardless": 4554,
      "keeping": 4555,
      "Ġdepend": 4556,
      "Ġstatements": 4557,
      "Ġadmits": 4558,
      "Ġexistence": 4559,
      "Ġrepresented": 4560,
      "Ġminutes": 4561,
      "Ġretrieve": 4562,
      "Ġmajority": 4563,
      "Ġconcerned": 4564,
      "Ġmotivation": 4565,
      "Ġinconsistent": 4566,
      "ĠBefore": 4567,
      "Ġwarrants": 4568,
      "Ġconversation": 4569,
      "Ġpreliminary": 4570,
      "ault": 4571,
      "book": 4572,
      "ral": 4573,
      "utral": 4574,
      "Ġsealed": 4575,
      "Ġneutral": 4576,
      "Ġquiet": 4577,
      "Ġdesires": 4578,
      "Ġconstraint": 4579,
      "Ġinside": 4580,
      "Ġhistorical": 4581,
      "Ġdefault": 4582,
      "Ġlock": 4583,
      "Ġnotebook": 4584,
      "Ġdeaths": 4585,
      "Ġembellishments": 4586,
      "Ġopened": 4587,
      "Ġdecline": 4588,
      "Ġconstraints": 4589,
      "Know": 4590,
      "aff": 4591,
      "appear": 4592,
      "aze": 4593,
      "average": 4594,
      "bt": 4595,
      "cing": 4596,
      "cation": 4597,
      "cul": 4598,
      "cific": 4599,
      "cution": 4600,
      "cogn": 4601,
      "dens": 4602,
      "doing": 4603,
      "ear": 4604,
      "eper": 4605,
      "eight": 4606,
      "eved": 4607,
      "eases": 4608,
      "found": 4609,
      "free": 4610,
      "fall": 4611,
      "ground": 4612,
      "hi": 4613,
      "hic": 4614,
      "hanced": 4615,
      "iograph": 4616,
      "jun": 4617,
      "lu": 4618,
      "lud": 4619,
      "lose": 4620,
      "lings": 4621,
      "lances": 4622,
      "lost": 4623,
      "lming": 4624,
      "mm": 4625,
      "mend": 4626,
      "mark": 4627,
      "oor": 4628,
      "occ": 4629,
      "oincidence": 4630,
      "patory": 4631,
      "ras": 4632,
      "rives": 4633,
      "rodu": 4634,
      "satisf": 4635,
      "tance": 4636,
      "tently": 4637,
      "tune": 4638,
      "vative": 4639,
      "venient": 4640,
      "whe": 4641,
      "xis": 4642,
      "Ġve": 4643,
      "Ġedu": 4644,
      "ĠForgery": 4645,
      "ĠKnow": 4646,
      "Ġtre": 4647,
      "Ġtent": 4648,
      "Ġtall": 4649,
      "Ġthous": 4650,
      "Ġthie": 4651,
      "Ġable": 4652,
      "Ġaxis": 4653,
      "inus": 4654,
      "inced": 4655,
      "inating": 4656,
      "initive": 4657,
      "inheritance": 4658,
      "Ġomiss": 4659,
      "Ġoptions": 4660,
      "reng": 4661,
      "repan": 4662,
      "recogn": 4663,
      "ater": 4664,
      "atural": 4665,
      "ony": 4666,
      "onvenient": 4667,
      "eral": 4668,
      "erve": 4669,
      "erative": 4670,
      "erted": 4671,
      "ergy": 4672,
      "erbal": 4673,
      "ervative": 4674,
      "enes": 4675,
      "enerative": 4676,
      "Ġcall": 4677,
      "Ġcert": 4678,
      "Ġceases": 4679,
      "Ġsough": 4680,
      "Ġsend": 4681,
      "Ġsport": 4682,
      "Ġsib": 4683,
      "Ġwra": 4684,
      "Ġwedded": 4685,
      "esist": 4686,
      "esitation": 4687,
      "isen": 4688,
      "isable": 4689,
      "isations": 4690,
      "isdict": 4691,
      "Ġpile": 4692,
      "Ġpenet": 4693,
      "alle": 4694,
      "alli": 4695,
      "itled": 4696,
      "itary": 4697,
      "Ġinad": 4698,
      "Ġinade": 4699,
      "icer": 4700,
      "icing": 4701,
      "icide": 4702,
      "Ġmil": 4703,
      "Ġmist": 4704,
      "edro": 4705,
      "edged": 4706,
      "Ġhot": 4707,
      "Ġhol": 4708,
      "Ġhome": 4709,
      "Ġhired": 4710,
      "Ġhesitation": 4711,
      "Ġhedged": 4712,
      "anently": 4713,
      "Ġbot": 4714,
      "Ġbare": 4715,
      "Ġbone": 4716,
      "Ġboy": 4717,
      "Ġbase": 4718,
      "Ġbiograph": 4719,
      "Ġbedro": 4720,
      "Ġdam": 4721,
      "Ġdust": 4722,
      "Ġdied": 4723,
      "Ġdrives": 4724,
      "ouch": 4725,
      "Ġfit": 4726,
      "Ġfive": 4727,
      "Ġfour": 4728,
      "Ġfine": 4729,
      "Ġfel": 4730,
      "Ġfav": 4731,
      "Ġfib": 4732,
      "Ġfake": 4733,
      "arised": 4734,
      "Ġtold": 4735,
      "leph": 4736,
      "Ġreject": 4737,
      "Ġrearr": 4738,
      "Ġresemble": 4739,
      "Ġreappear": 4740,
      "ometimes": 4741,
      "omple": 4742,
      "ommend": 4743,
      "vely": 4744,
      "cell": 4745,
      "Ġeld": 4746,
      "Ġelect": 4747,
      "stract": 4748,
      "Ġnam": 4749,
      "Ġnoun": 4750,
      "imony": 4751,
      "Ġbequ": 4752,
      "ationary": 4753,
      "secution": 4754,
      "hether": 4755,
      "heel": 4756,
      "Ġpry": 4757,
      "Ġpriv": 4758,
      "ifest": 4759,
      "ified": 4760,
      "otating": 4761,
      "etic": 4762,
      "etired": 4763,
      "Ġconjun": 4764,
      "pecific": 4765,
      "igible": 4766,
      "ided": 4767,
      "idays": 4768,
      "idually": 4769,
      "estab": 4770,
      "ird": 4771,
      "irst": 4772,
      "irable": 4773,
      "utely": 4774,
      "ulates": 4775,
      "actions": 4776,
      "Ġmood": 4777,
      "Ġmoving": 4778,
      "isturb": 4779,
      "Ġnoticing": 4780,
      "ateur": 4781,
      "Ġproves": 4782,
      "Ġprosecution": 4783,
      "urrence": 4784,
      "urisdict": 4785,
      "vertently": 4786,
      "Ġlod": 4787,
      "Ġliar": 4788,
      "Ġloss": 4789,
      "Ġliving": 4790,
      "Ġlater": 4791,
      "Ġexceed": 4792,
      "Ġexcul": 4793,
      "Ġexhi": 4794,
      "Ġexcell": 4795,
      "ession": 4796,
      "Ġgra": 4797,
      "Ġgone": 4798,
      "Ġgard": 4799,
      "Ġgained": 4800,
      "Ġgaze": 4801,
      "terinary": 4802,
      "Ġfortune": 4803,
      "Ġcompl": 4804,
      "rame": 4805,
      "ifice": 4806,
      "ificates": 4807,
      "quacy": 4808,
      "Ġsumm": 4809,
      "Ġsuicide": 4810,
      "olesc": 4811,
      "olutely": 4812,
      "ppoint": 4813,
      "Ġdebt": 4814,
      "Ġdeeper": 4815,
      "Ġchronic": 4816,
      "Ġrang": 4817,
      "Ġrisen": 4818,
      "Ġrotating": 4819,
      "Ġstill": 4820,
      "Ġstaged": 4821,
      "Ġstrong": 4822,
      "Ġstaging": 4823,
      "Ġstager": 4824,
      "Ġstaff": 4825,
      "Ġstreng": 4826,
      "Ġstationary": 4827,
      "perfect": 4828,
      "antial": 4829,
      "aintance": 4830,
      "umes": 4831,
      "Ġenvel": 4832,
      "Ġenhanced": 4833,
      "Ġenergy": 4834,
      "oder": 4835,
      "plies": 4836,
      "plomatic": 4837,
      "Ġdog": 4838,
      "Ġaccus": 4839,
      "Ġaccuse": 4840,
      "usal": 4841,
      "usions": 4842,
      "Ġgenetic": 4843,
      "osis": 4844,
      "osing": 4845,
      "Ġphras": 4846,
      "Ġsection": 4847,
      "Ġsells": 4848,
      "Ġappoint": 4849,
      "Ġphysiological": 4850,
      "Ġnext": 4851,
      "Ġnegl": 4852,
      "Ġconservative": 4853,
      "Ġconsumes": 4854,
      "Ġresidual": 4855,
      "Ġdissatisf": 4856,
      "Ġdisinheritance": 4857,
      "Ġcharacterisations": 4858,
      "ogether": 4859,
      "Ġmeals": 4860,
      "Ġparty": 4861,
      "Ġparties": 4862,
      "Ġalert": 4863,
      "Ġalarmed": 4864,
      "Ġalerted": 4865,
      "Ġimperfect": 4866,
      "Ġimplies": 4867,
      "amond": 4868,
      "amiliar": 4869,
      "Ġmanages": 4870,
      "Ġmanifest": 4871,
      "Ġteleph": 4872,
      "Ġbecame": 4873,
      "Ġdistress": 4874,
      "Ġobserves": 4875,
      "ember": 4876,
      "Ġdifferences": 4877,
      "Ġrecommend": 4878,
      "Ġinterrog": 4879,
      "Ġinteraction": 4880,
      "riage": 4881,
      "Ġpretext": 4882,
      "Ġvariable": 4883,
      "Ġword": 4884,
      "Ġworse": 4885,
      "Ġabstract": 4886,
      "Ġdeserve": 4887,
      "Ġdesirable": 4888,
      "Ġintrodu": 4889,
      "iciary": 4890,
      "Ġundiscrim": 4891,
      "Ġundisturb": 4892,
      "ctioned": 4893,
      "Ġadolesc": 4894,
      "Ġproducing": 4895,
      "Ġentitled": 4896,
      "Ġmethodically": 4897,
      "Ġmethodology": 4898,
      "ĠWe": 4899,
      "ĠWrit": 4900,
      "ĠWhere": 4901,
      "ĠWhether": 4902,
      "Ġpresently": 4903,
      "Ġplants": 4904,
      "Ġarise": 4905,
      "Ġgeneralised": 4906,
      "assailable": 4907,
      "Ġprofessionally": 4908,
      "ĠAll": 4909,
      "Ġunlim": 4910,
      "Ġunassailable": 4911,
      "Ġproblematic": 4912,
      "Ġamiss": 4913,
      "Ġamateur": 4914,
      "Ġperception": 4915,
      "Ġperceptible": 4916,
      "Ġclub": 4917,
      "Ġweathering": 4918,
      "Ġheld": 4919,
      "Ġhealed": 4920,
      "ĠThird": 4921,
      "Ġscenes": 4922,
      "Ġformulated": 4923,
      "Ġpock": 4924,
      "Ġidentical": 4925,
      "Ġinterested": 4926,
      "angers": 4927,
      "Ġtyped": 4928,
      "Ġoverwhe": 4929,
      "Ġaged": 4930,
      "Ġagencies": 4931,
      "Ġrelies": 4932,
      "Ġinstructive": 4933,
      "Ġdegenerative": 4934,
      "Ġcost": 4935,
      "Ġconsistency": 4936,
      "Ġlesson": 4937,
      "Ġlesser": 4938,
      "ĠBoth": 4939,
      "othing": 4940,
      "Ġlegally": 4941,
      "Ġnews": 4942,
      "Ġpossession": 4943,
      "Ġfear": 4944,
      "Ġdevelopments": 4945,
      "Ġfool": 4946,
      "Ġemotion": 4947,
      "berty": 4948,
      "ĠShe": 4949,
      "ĠSilence": 4950,
      "ĠSometimes": 4951,
      "ĠSpecific": 4952,
      "Ġdisclose": 4953,
      "Ġdiscrepan": 4954,
      "Ġabscond": 4955,
      "Ġabsolutely": 4956,
      "astrop": 4957,
      "Ġexposed": 4958,
      "bits": 4959,
      "Ġjurisdict": 4960,
      "Ġtestament": 4961,
      "Ġtestimony": 4962,
      "Ġdisappoint": 4963,
      "Ġtaking": 4964,
      "Ġyours": 4965,
      "Ġcertainly": 4966,
      "Ġlooked": 4967,
      "Ġoffer": 4968,
      "Ġoffence": 4969,
      "Ġofficer": 4970,
      "Ġdisappearances": 4971,
      "Ġimportantly": 4972,
      "Ġaccumulates": 4973,
      "Ġplacement": 4974,
      "Ġsignature": 4975,
      "Ġrelieved": 4976,
      "Ġchemicals": 4977,
      "Ġopposed": 4978,
      "Ġsupplement": 4979,
      "fortune": 4980,
      "Ġunderstands": 4981,
      "acing": 4982,
      "acity": 4983,
      "acency": 4984,
      "Ġinvolunt": 4985,
      "Ġmisgu": 4986,
      "Ġmisfortune": 4987,
      "Ġfailures": 4988,
      "Ġbelief": 4989,
      "Ġbelieved": 4990,
      "ĠCome": 4991,
      "ĠCoincidence": 4992,
      "Ġviolation": 4993,
      "Ġviolated": 4994,
      "Ġquestioning": 4995,
      "Ġcorrected": 4996,
      "Ġinsight": 4997,
      "Ġinsurance": 4998,
      "Ġinsensible": 4999,
      "Ġfull": 5000,
      "Ġinclud": 5001,
      "Ġinconvenient": 5002,
      "Ġincomple": 5003,
      "Ġirration": 5004,
      "Ġperiodic": 5005,
      "Ġconvinced": 5006,
      "Ġneeded": 5007,
      "Ġexpects": 5008,
      "Ġexpecting": 5009,
      "Ġbehaving": 5010,
      "Ġinflu": 5011,
      "Ġinfalli": 5012,
      "Ġpauses": 5013,
      "Ġsatisfies": 5014,
      "Ġobjective": 5015,
      "Ġfields": 5016,
      "Ġconclusive": 5017,
      "Ġpasser": 5018,
      "Ġadvise": 5019,
      "Ġhistories": 5020,
      "Ġmisses": 5021,
      "Ġregularly": 5022,
      "Ġreceiving": 5023,
      "Ġindication": 5024,
      "Ġdeliberately": 5025,
      "Ġunusually": 5026,
      "Ġprimed": 5027,
      "Ġmodel": 5028,
      "Ġprovable": 5029,
      "Ġfeature": 5030,
      "Ġclaiming": 5031,
      "Ġdepending": 5032,
      "ĠEmp": 5033,
      "Ġdiscovers": 5034,
      "Ġstatement": 5035,
      "Ġpostmark": 5036,
      "Ġeffectively": 5037,
      "Ġhappens": 5038,
      "Ġcapability": 5039,
      "Ġcapacity": 5040,
      "Ġbegan": 5041,
      "Ġfrequently": 5042,
      "Ġprinted": 5043,
      "Ġinhabits": 5044,
      "Ġartifice": 5045,
      "Ġclassified": 5046,
      "Ġillusions": 5047,
      "ĠNatural": 5048,
      "ĠNothing": 5049,
      "Ġexists": 5050,
      "Ġexistential": 5051,
      "Ġhonestly": 5052,
      "Ġacquaintance": 5053,
      "Ġcolouring": 5054,
      "Ġremember": 5055,
      "Ġherself": 5056,
      "Ġheritable": 5057,
      "Ġvertical": 5058,
      "Ġverbal": 5059,
      "Ġrepresentation": 5060,
      "ĠOnce": 5061,
      "ĠOne": 5062,
      "Ġdefensive": 5063,
      "Ġdefinitive": 5064,
      "Ġharms": 5065,
      "Ġindividually": 5066,
      "ĠDifferent": 5067,
      "Ġstructural": 5068,
      "Ġseparation": 5069,
      "Ġseparated": 5070,
      "Ġuntouch": 5071,
      "Ġsubstantial": 5072,
      "Ġsources": 5073,
      "Ġresolves": 5074,
      "Ġlocations": 5075,
      "Ġburdens": 5076,
      "Ġreproduced": 5077,
      "Ġchoosing": 5078,
      "Ġlaborious": 5079,
      "Ġnavigating": 5080,
      "Ġcausal": 5081,
      "Ġmarks": 5082,
      "Ġbenign": 5083,
      "Ġrecognisable": 5084,
      "Ġminute": 5085,
      "Ġmineral": 5086,
      "Ġliberty": 5087,
      "Ġtranscript": 5088,
      "Ġtransaction": 5089,
      "Ġtransactions": 5090,
      "Ġneighbouring": 5091,
      "Ġwrongdoing": 5092,
      "Ġmemories": 5093,
      "Ġholding": 5094,
      "Ġoriginal": 5095,
      "Ġpermiss": 5096,
      "Ġpermanently": 5097,
      "Ġtreating": 5098,
      "Ġblackmailed": 5099,
      "ĠPoint": 5100,
      "Ġcatastrop": 5101,
      "Ġconsulted": 5102,
      "Ġalarming": 5103,
      "Ġcompetence": 5104,
      "Ġregistered": 5105,
      "ĠVerbal": 5106,
      "Ġmarriage": 5107,
      "Ġextraordinarily": 5108,
      "Ġexploitable": 5109,
      "ĠNote": 5110,
      "Ġreturn": 5111,
      "Ġretired": 5112,
      "Ġcontains": 5113,
      "Ġdateable": 5114,
      "Ġdiplomatic": 5115,
      "Ġdiamond": 5116,
      "Ġamounts": 5117,
      "Ġclosest": 5118,
      "Ġpoisoned": 5119,
      "Ġpoisoning": 5120,
      "Ġsuspiciousness": 5121,
      "Ġvulnerable": 5122,
      "Ġmanageable": 5123,
      "Ġaddressing": 5124,
      "ĠYour": 5125,
      "Ġwaterm": 5126,
      "Ġdeciding": 5127,
      "Ġdecoder": 5128,
      "year": 5129,
      "Ġaffection": 5130,
      "Ġaffections": 5131,
      "Ġparish": 5132,
      "Ġparalle": 5133,
      "Ġreplacing": 5134,
      "Ġreplacement": 5135,
      "Ġlaws": 5136,
      "Ġinvented": 5137,
      "Ġdismissed": 5138,
      "Ġdismissing": 5139,
      "Ġaltogether": 5140,
      "Ġcomprehensible": 5141,
      "Ġsurvived": 5142,
      "Ġirrelevance": 5143,
      "Ġencoder": 5144,
      "Ġencodes": 5145,
      "Ġelsewhere": 5146,
      "Ġwitnesses": 5147,
      "Ġfalls": 5148,
      "Ġconsequently": 5149,
      "Ġinternational": 5150,
      "Ġhealthy": 5151,
      "Ġconstrains": 5152,
      "ĠSomeone": 5153,
      "Ġthreatening": 5154,
      "Ġbeneficiary": 5155,
      "Ġwatching": 5156,
      "ĠWho": 5157,
      "ĠWhich": 5158,
      "mortem": 5159,
      "Ġedge": 5160,
      "Ġthird": 5161,
      "Ġcarpet": 5162,
      "Ġcreating": 5163,
      "Ġsanctioned": 5164,
      "Ġsample": 5165,
      "Ġorientation": 5166,
      "Ġproposed": 5167,
      "Ġimplicitly": 5168,
      "Ġunfamiliar": 5169,
      "Ġperceived": 5170,
      "Ġconstantly": 5171,
      "Ġreceipt": 5172,
      "Ġarticulated": 5173,
      "Ġmuscle": 5174,
      "Ġacknowledges": 5175,
      "Ġdiagnosis": 5176,
      "Ġboundaries": 5177,
      "Ġlately": 5178,
      "Ġcompensates": 5179,
      "Ġoutdoor": 5180,
      "Ġmurder": 5181,
      "Ġanimals": 5182,
      "Ġresembles": 5183,
      "Ġresemblances": 5184,
      "Ġpersonality": 5185,
      "Ġinconsistency": 5186,
      "Ġinconsistencies": 5187,
      "ĠFear": 5188,
      "ĠFirst": 5189,
      "ĠFrame": 5190,
      "Ġdenial": 5191,
      "Ġrestore": 5192,
      "Ġrestored": 5193,
      "Ġrestraint": 5194,
      "Ġsearched": 5195,
      "Ġheirs": 5196,
      "Ġverify": 5197,
      "Ġverified": 5198,
      "Ġverifiable": 5199,
      "Ġpreviously": 5200,
      "ĠGo": 5201,
      "ĠGive": 5202,
      "ĠResist": 5203,
      "ĠRetired": 5204,
      "Ġterms": 5205,
      "Ġterminus": 5206,
      "Ġbackground": 5207,
      "Ġreassuring": 5208,
      "Ġreassurance": 5209,
      "Ġreplicate": 5210,
      "Ġreplicated": 5211,
      "Ġnightfall": 5212,
      "Ġlinks": 5213,
      "Ġlinked": 5214,
      "Ġstranger": 5215,
      "Ġstrangers": 5216,
      "Ġselected": 5217,
      "Ġselectively": 5218,
      "Ġpartially": 5219,
      "Ġimagination": 5220,
      "Ġimagines": 5221,
      "Ġintention": 5222,
      "Ġintentions": 5223,
      "ĠAlso": 5224,
      "ĠAlarmed": 5225,
      "Ġpurchased": 5226,
      "Ġpurchases": 5227,
      "Ġassertion": 5228,
      "ĠShow": 5229,
      "ĠShould": 5230,
      "Ġconfirmation": 5231,
      "Ġmanufactured": 5232,
      "Ġpremature": 5233,
      "occurrence": 5234,
      "Ġveterinary": 5235,
      "Ġeducation": 5236,
      "ĠKnowing": 5237,
      "Ġtreated": 5238,
      "Ġtentative": 5239,
      "Ġthousand": 5240,
      "Ġthief": 5241,
      "Ġomission": 5242,
      "recognition": 5243,
      "Ġcertificates": 5244,
      "Ġsought": 5245,
      "Ġsender": 5246,
      "Ġsporting": 5247,
      "Ġsiblings": 5248,
      "Ġwrapped": 5249,
      "Ġpenetration": 5250,
      "Ġinadvertently": 5251,
      "Ġinadequacy": 5252,
      "Ġmilitary": 5253,
      "Ġmistake": 5254,
      "Ġhotter": 5255,
      "Ġholidays": 5256,
      "Ġbotany": 5257,
      "Ġbarely": 5258,
      "Ġbiographical": 5259,
      "Ġbedroom": 5260,
      "Ġdamage": 5261,
      "Ġfelt": 5262,
      "Ġfavour": 5263,
      "Ġfibres": 5264,
      "Ġrearrange": 5265,
      "Ġelder": 5266,
      "Ġelectronic": 5267,
      "Ġnames": 5268,
      "Ġbequest": 5269,
      "Ġprivate": 5270,
      "Ġconjunction": 5271,
      "establish": 5272,
      "Ġlodges": 5273,
      "Ġexceeds": 5274,
      "Ġexculpatory": 5275,
      "Ġexhibits": 5276,
      "Ġexcellent": 5277,
      "Ġgravely": 5278,
      "Ġgarden": 5279,
      "Ġcomplacency": 5280,
      "Ġsummarised": 5281,
      "Ġranges": 5282,
      "Ġstrength": 5283,
      "Ġenvelope": 5284,
      "Ġaccused": 5285,
      "Ġphrasing": 5286,
      "Ġappointment": 5287,
      "Ġnegligible": 5288,
      "Ġdissatisfaction": 5289,
      "Ġalertness": 5290,
      "Ġmanifestations": 5291,
      "Ġtelephone": 5292,
      "Ġrecommendations": 5293,
      "Ġinterrogation": 5294,
      "Ġpretexts": 5295,
      "Ġabstractly": 5296,
      "Ġintroduced": 5297,
      "Ġundiscriminating": 5298,
      "Ġundisturbed": 5299,
      "Ġadolescent": 5300,
      "ĠWritten": 5301,
      "Ġunlimited": 5302,
      "Ġpocket": 5303,
      "Ġoverwhelming": 5304,
      "ĠSpecificity": 5305,
      "Ġdiscrepancy": 5306,
      "Ġabsconded": 5307,
      "Ġjurisdictions": 5308,
      "Ġtestamentary": 5309,
      "Ġdisappointed": 5310,
      "Ġsupplemented": 5311,
      "Ġinvoluntary": 5312,
      "Ġmisguided": 5313,
      "Ġincluding": 5314,
      "Ġincomplete": 5315,
      "Ġirrational": 5316,
      "Ġinfluence": 5317,
      "Ġinfallible": 5318,
      "ĠEmpire": 5319,
      "Ġuntouched": 5320,
      "Ġsubstantially": 5321,
      "Ġburdensome": 5322,
      "Ġtranscriptions": 5323,
      "Ġpermission": 5324,
      "Ġcatastrophic": 5325,
      "Ġwatermark": 5326,
      "Ġparallel": 5327,
      "'t": 5328,
      "Unt": 5329,
      "aution": 5330,
      "dis": 5331,
      "eable": 5332,
      "ellig": 5333,
      "gic": 5334,
      "glect": 5335,
      "iac": 5336,
      "ipped": 5337,
      "no": 5338,
      "pos": 5339,
      "pose": 5340,
      "pite": 5341,
      "rot": 5342,
      "taking": 5343,
      "torical": 5344,
      "vation": 5345,
      "ĠUnt": 5346,
      "Ġten": 5347,
      "rend": 5348,
      "erday": 5349,
      "Ġcard": 5350,
      "Ġsil": 5351,
      "Ġsord": 5352,
      "Ġscept": 5353,
      "Ġwid": 5354,
      "esqu": 5355,
      "Ġpen": 5356,
      "Ġput": 5357,
      "itional": 5358,
      "icism": 5359,
      "Ġanci": 5360,
      "Ġbid": 5361,
      "Ġdon": 5362,
      "ention": 5363,
      "Ġreno": 5364,
      "omant": 5365,
      "Ġequ": 5366,
      "Ġeager": 5367,
      "seeable": 5368,
      "hetorical": 5369,
      "ifies": 5370,
      "ĠInt": 5371,
      "esterday": 5372,
      "acting": 5373,
      "Ġnotes": 5374,
      "Ġgently": 5375,
      "Ġgrot": 5376,
      "Ġforce": 5377,
      "riminate": 5378,
      "Ġdead": 5379,
      "Ġromant": 5380,
      "Ġrhetorical": 5381,
      "herics": 5382,
      "Ġstop": 5383,
      "Ġstart": 5384,
      "Ġstay": 5385,
      "Ġevident": 5386,
      "Ġyesterday": 5387,
      "Ġmyself": 5388,
      "ifference": 5389,
      "Ġphase": 5390,
      "Ġneglect": 5391,
      "Ġdispos": 5392,
      "Ġcompose": 5393,
      "Ġpredis": 5394,
      "Ġtragic": 5395,
      "Ġdespite": 5396,
      "Ġcontribute": 5397,
      "ĠWill": 5398,
      "Ġunav": 5399,
      "Ġunless": 5400,
      "Ġhear": 5401,
      "Ġheart": 5402,
      "cuments": 5403,
      "Ġindifference": 5404,
      "Ġidentities": 5405,
      "Ġowner": 5406,
      "Ġqualification": 5407,
      "Ġframed": 5408,
      "Ġrefuse": 5409,
      "Ġprecaution": 5410,
      "veloped": 5411,
      "Ġconfine": 5412,
      "Ġdiscriminate": 5413,
      "Ġfactors": 5414,
      "Ġdistraction": 5415,
      "Ġdistracting": 5416,
      "Ġsurrend": 5417,
      "Ġyourself": 5418,
      "Ġattack": 5419,
      "Ġconditional": 5420,
      "Ġsupposes": 5421,
      "Ġwrite": 5422,
      "Ġwrites": 5423,
      "Ġdetermining": 5424,
      "Ġseriousness": 5425,
      "ĠInside": 5426,
      "Ġintellectually": 5427,
      "Ġmorally": 5428,
      "Ġasks": 5429,
      "Ġthoroughly": 5430,
      "ĠEither": 5431,
      "Ġdiscoveries": 5432,
      "wards": 5433,
      "Ġcapabilities": 5434,
      "Ġintervening": 5435,
      "Ġintervention": 5436,
      "Ġlegality": 5437,
      "ĠDid": 5438,
      "Ġhighly": 5439,
      "Ġafterwards": 5440,
      "Ġresolved": 5441,
      "Ġaudible": 5442,
      "Ġprevented": 5443,
      "ĠDocuments": 5444,
      "Ġexercising": 5445,
      "Ġrights": 5446,
      "Ġamplifies": 5447,
      "Ġatmospherics": 5448,
      "Ġcontained": 5449,
      "Ġaddresses": 5450,
      "Ġdestructive": 5451,
      "Ġconsequential": 5452,
      "developed": 5453,
      "Ġforeseeable": 5454,
      "Ġappreciation": 5455,
      "Ġsafekeeping": 5456,
      "Ġdepartures": 5457,
      "Ġillumination": 5458,
      "Ġmeaningful": 5459,
      "Ġpotentially": 5460,
      "Ġfirmly": 5461,
      "Ġsensationalism": 5462,
      "Ġjournalist": 5463,
      "Ġembarrassing": 5464,
      "Ġpremise": 5465,
      "elligence": 5466,
      "ĠUntil": 5467,
      "Ġcardiac": 5468,
      "Ġsilently": 5469,
      "Ġsordid": 5470,
      "Ġscepticism": 5471,
      "Ġwidow": 5472,
      "esque": 5473,
      "Ġanciently": 5474,
      "Ġrenovation": 5475,
      "Ġequipped": 5476,
      "ĠIntelligence": 5477,
      "Ġgrotesque": 5478,
      "Ġromantic": 5479,
      "Ġstarting": 5480,
      "Ġneglected": 5481,
      "Ġdispositions": 5482,
      "Ġpredispose": 5483,
      "Ġunavailable": 5484,
      "Ġsurrendering": 5485
    },
    "merges": [
      [
        "Ġ",
        "t"
      ],
      [
        "Ġt",
        "h"
      ],
      [
        "Ġ",
        "a"
      ],
      [
        "Ġth",
        "e"
      ],
      [
        "i",
        "n"
      ],
      [
        "Ġ",
        "o"
      ],
      [
        "r",
        "e"
      ],
      [
        "a",
        "t"
      ],
      [
        "o",
        "n"
      ],
      [
        "e",
        "r"
      ],
      [
        "e",
        "n"
      ],
      [
        "Ġ",
        "c"
      ],
      [
        "Ġo",
        "f"
      ],
      [
        "Ġ",
        "s"
      ],
      [
        "Ġ",
        "w"
      ],
      [
        "e",
        "s"
      ],
      [
        "i",
        "s"
      ],
      [
        "Ġ",
        "p"
      ],
      [
        "a",
        "l"
      ],
      [
        "i",
        "t"
      ],
      [
        "Ġ",
        "in"
      ],
      [
        "i",
        "c"
      ],
      [
        "Ġa",
        "n"
      ],
      [
        "Ġ",
        "m"
      ],
      [
        "i",
        "on"
      ],
      [
        "e",
        "d"
      ],
      [
        "Ġ",
        "h"
      ],
      [
        "a",
        "n"
      ],
      [
        "Ġ",
        "b"
      ],
      [
        "Ġan",
        "d"
      ],
      [
        "Ġ",
        "d"
      ],
      [
        "o",
        "r"
      ],
      [
        "o",
        "u"
      ],
      [
        "Ġ",
        "f"
      ],
      [
        "a",
        "r"
      ],
      [
        "en",
        "t"
      ],
      [
        "c",
        "t"
      ],
      [
        "Ġt",
        "o"
      ],
      [
        "in",
        "g"
      ],
      [
        "l",
        "e"
      ],
      [
        "a",
        "s"
      ],
      [
        "l",
        "y"
      ],
      [
        "Ġth",
        "at"
      ],
      [
        "Ġ",
        "re"
      ],
      [
        "o",
        "m"
      ],
      [
        "v",
        "e"
      ],
      [
        "c",
        "e"
      ],
      [
        "Ġ",
        "e"
      ],
      [
        "s",
        "t"
      ],
      [
        "Ġw",
        "h"
      ],
      [
        "Ġ",
        "n"
      ],
      [
        "i",
        "m"
      ],
      [
        "Ġb",
        "e"
      ],
      [
        "at",
        "ion"
      ],
      [
        "Ġ",
        "is"
      ],
      [
        "s",
        "e"
      ],
      [
        "h",
        "e"
      ],
      [
        "Ġp",
        "r"
      ],
      [
        "i",
        "f"
      ],
      [
        "o",
        "t"
      ],
      [
        "Ġ",
        "it"
      ],
      [
        "e",
        "t"
      ],
      [
        "Ġc",
        "on"
      ],
      [
        "Ġ",
        "I"
      ],
      [
        "p",
        "e"
      ],
      [
        "T",
        "he"
      ],
      [
        "Ġh",
        "a"
      ],
      [
        "i",
        "g"
      ],
      [
        "i",
        "l"
      ],
      [
        "ic",
        "al"
      ],
      [
        "i",
        "d"
      ],
      [
        "es",
        "t"
      ],
      [
        "i",
        "r"
      ],
      [
        "e",
        "re"
      ],
      [
        "u",
        "t"
      ],
      [
        "u",
        "l"
      ],
      [
        "b",
        "le"
      ],
      [
        "â",
        "Ģ"
      ],
      [
        "Ġ",
        "âĢ"
      ],
      [
        "ĠâĢ",
        "Ķ"
      ],
      [
        "a",
        "ct"
      ],
      [
        "Ġo",
        "r"
      ],
      [
        "Ġm",
        "o"
      ],
      [
        "is",
        "t"
      ],
      [
        "Ġn",
        "ot"
      ],
      [
        "it",
        "h"
      ],
      [
        "Ġ",
        "The"
      ],
      [
        "at",
        "e"
      ],
      [
        "Ġpr",
        "o"
      ],
      [
        "Ġha",
        "ve"
      ],
      [
        "Ġw",
        "ith"
      ],
      [
        "Ġo",
        "n"
      ],
      [
        "u",
        "r"
      ],
      [
        "v",
        "er"
      ],
      [
        "Ġ",
        "l"
      ],
      [
        "Ġe",
        "x"
      ],
      [
        "es",
        "s"
      ],
      [
        "it",
        "y"
      ],
      [
        "l",
        "l"
      ],
      [
        "Ġ",
        "g"
      ],
      [
        "c",
        "c"
      ],
      [
        "en",
        "ce"
      ],
      [
        "t",
        "er"
      ],
      [
        "c",
        "i"
      ],
      [
        "Ġf",
        "or"
      ],
      [
        "m",
        "ent"
      ],
      [
        "Ġc",
        "om"
      ],
      [
        "Ġ",
        "u"
      ],
      [
        "Ġin",
        "v"
      ],
      [
        "r",
        "a"
      ],
      [
        "o",
        "w"
      ],
      [
        "y",
        "s"
      ],
      [
        "Ġa",
        "re"
      ],
      [
        "if",
        "ic"
      ],
      [
        "Ġa",
        "s"
      ],
      [
        "n",
        "t"
      ],
      [
        "q",
        "u"
      ],
      [
        "Ġh",
        "as"
      ],
      [
        "Ġs",
        "pe"
      ],
      [
        "Ġs",
        "u"
      ],
      [
        "o",
        "l"
      ],
      [
        "er",
        "s"
      ],
      [
        "Ġ",
        "v"
      ],
      [
        "c",
        "h"
      ],
      [
        "i",
        "ve"
      ],
      [
        "Ġwh",
        "o"
      ],
      [
        "Ġa",
        "t"
      ],
      [
        "p",
        "p"
      ],
      [
        "n",
        "d"
      ],
      [
        "Ġinv",
        "est"
      ],
      [
        "r",
        "im"
      ],
      [
        "Ġinvest",
        "ig"
      ],
      [
        "Ġspe",
        "c"
      ],
      [
        "re",
        "s"
      ],
      [
        "Ġd",
        "e"
      ],
      [
        "b",
        "s"
      ],
      [
        "a",
        "ble"
      ],
      [
        "Ġspec",
        "ific"
      ],
      [
        "Ġc",
        "rim"
      ],
      [
        "ou",
        "s"
      ],
      [
        "Ġthe",
        "ir"
      ],
      [
        "Ġc",
        "h"
      ],
      [
        "Ġ",
        "r"
      ],
      [
        "h",
        "er"
      ],
      [
        "Ġs",
        "t"
      ],
      [
        "g",
        "e"
      ],
      [
        "Ġf",
        "r"
      ],
      [
        "ou",
        "r"
      ],
      [
        "Ġe",
        "v"
      ],
      [
        "Ġo",
        "bs"
      ],
      [
        "p",
        "er"
      ],
      [
        "an",
        "t"
      ],
      [
        "a",
        "in"
      ],
      [
        "u",
        "m"
      ],
      [
        "Ġobs",
        "er"
      ],
      [
        "Ġfr",
        "om"
      ],
      [
        "l",
        "d"
      ],
      [
        "Ġthe",
        "y"
      ],
      [
        "Ġwh",
        "at"
      ],
      [
        "t",
        "e"
      ],
      [
        "Ġmo",
        "st"
      ],
      [
        "Ġc",
        "as"
      ],
      [
        "ic",
        "h"
      ],
      [
        "Ġwh",
        "ich"
      ],
      [
        "Ġ",
        "k"
      ],
      [
        "a",
        "d"
      ],
      [
        "Ġ",
        "le"
      ],
      [
        "Ġ",
        "y"
      ],
      [
        "Ġ",
        "en"
      ],
      [
        "u",
        "d"
      ],
      [
        "i",
        "es"
      ],
      [
        "i",
        "v"
      ],
      [
        "o",
        "d"
      ],
      [
        "il",
        "l"
      ],
      [
        "Ġm",
        "y"
      ],
      [
        "p",
        "l"
      ],
      [
        "Ġd",
        "o"
      ],
      [
        "Ġit",
        "s"
      ],
      [
        "if",
        "f"
      ],
      [
        "Ġa",
        "cc"
      ],
      [
        "Ġb",
        "y"
      ],
      [
        "Ġpr",
        "act"
      ],
      [
        "u",
        "al"
      ],
      [
        "ou",
        "t"
      ],
      [
        "Ġp",
        "ers"
      ],
      [
        "o",
        "p"
      ],
      [
        "Ġmo",
        "re"
      ],
      [
        "g",
        "h"
      ],
      [
        "c",
        "es"
      ],
      [
        "Ġinvestig",
        "at"
      ],
      [
        "u",
        "s"
      ],
      [
        "in",
        "d"
      ],
      [
        "i",
        "re"
      ],
      [
        "a",
        "b"
      ],
      [
        "in",
        "al"
      ],
      [
        "Ġg",
        "en"
      ],
      [
        "f",
        "or"
      ],
      [
        "Ġpers",
        "on"
      ],
      [
        "ou",
        "gh"
      ],
      [
        "Ġs",
        "om"
      ],
      [
        "o",
        "s"
      ],
      [
        "id",
        "ence"
      ],
      [
        "ion",
        "al"
      ],
      [
        "Ġp",
        "h"
      ],
      [
        "Ġw",
        "as"
      ],
      [
        "an",
        "ce"
      ],
      [
        "ci",
        "al"
      ],
      [
        "Ġth",
        "an"
      ],
      [
        "Ġd",
        "iff"
      ],
      [
        "Ġs",
        "e"
      ],
      [
        "Ġa",
        "pp"
      ],
      [
        "a",
        "k"
      ],
      [
        "e",
        "ct"
      ],
      [
        "Ġcrim",
        "inal"
      ],
      [
        "ar",
        "i"
      ],
      [
        "a",
        "re"
      ],
      [
        "Ġa",
        "ct"
      ],
      [
        "Ġthe",
        "m"
      ],
      [
        "ar",
        "t"
      ],
      [
        "ar",
        "act"
      ],
      [
        "Ġch",
        "aract"
      ],
      [
        "Ġph",
        "ys"
      ],
      [
        "Ġb",
        "ut"
      ],
      [
        "Ġn",
        "e"
      ],
      [
        "Ġcon",
        "s"
      ],
      [
        "Ġphys",
        "ical"
      ],
      [
        "Ġre",
        "s"
      ],
      [
        "Ġd",
        "is"
      ],
      [
        "Ġcharact",
        "er"
      ],
      [
        "o",
        "g"
      ],
      [
        "d",
        "u"
      ],
      [
        "an",
        "d"
      ],
      [
        "Ġm",
        "e"
      ],
      [
        "l",
        "i"
      ],
      [
        "Ġp",
        "art"
      ],
      [
        "Ġa",
        "l"
      ],
      [
        "Ġ",
        "im"
      ],
      [
        "a",
        "u"
      ],
      [
        "a",
        "il"
      ],
      [
        "a",
        "m"
      ],
      [
        "Ġs",
        "o"
      ],
      [
        "au",
        "se"
      ],
      [
        "Ġan",
        "y"
      ],
      [
        "Ġm",
        "an"
      ],
      [
        "Ġev",
        "idence"
      ],
      [
        "Ġt",
        "e"
      ],
      [
        "Ġa",
        "ll"
      ],
      [
        "n",
        "ow"
      ],
      [
        "ul",
        "ar"
      ],
      [
        "u",
        "re"
      ],
      [
        "Ġcom",
        "p"
      ],
      [
        "o",
        "re"
      ],
      [
        "is",
        "h"
      ],
      [
        "Ġbe",
        "c"
      ],
      [
        "for",
        "m"
      ],
      [
        "et",
        "h"
      ],
      [
        "in",
        "e"
      ],
      [
        "is",
        "e"
      ],
      [
        "Ġd",
        "ist"
      ],
      [
        "Ġobser",
        "v"
      ],
      [
        "a",
        "y"
      ],
      [
        "o",
        "se"
      ],
      [
        "or",
        "t"
      ],
      [
        "e",
        "m"
      ],
      [
        "ul",
        "t"
      ],
      [
        "ation",
        "s"
      ],
      [
        "Ġw",
        "ill"
      ],
      [
        "Ġdiff",
        "ere"
      ],
      [
        "ion",
        "s"
      ],
      [
        "en",
        "d"
      ],
      [
        "Ġbe",
        "en"
      ],
      [
        "Ġin",
        "form"
      ],
      [
        "ou",
        "ld"
      ],
      [
        "Ġo",
        "cc"
      ],
      [
        "ou",
        "nd"
      ],
      [
        "Ġbec",
        "ause"
      ],
      [
        "Ġre",
        "c"
      ],
      [
        "Ġc",
        "an"
      ],
      [
        "Ġk",
        "now"
      ],
      [
        "at",
        "ed"
      ],
      [
        "Ġin",
        "ter"
      ],
      [
        "a",
        "ce"
      ],
      [
        "Ġcas",
        "es"
      ],
      [
        "l",
        "ed"
      ],
      [
        "r",
        "i"
      ],
      [
        "Ġp",
        "re"
      ],
      [
        "Ġon",
        "e"
      ],
      [
        "t",
        "en"
      ],
      [
        "Ġd",
        "et"
      ],
      [
        "a",
        "ys"
      ],
      [
        "Ġs",
        "y"
      ],
      [
        "Ġcom",
        "m"
      ],
      [
        "Ġ",
        "qu"
      ],
      [
        "Ġv",
        "ari"
      ],
      [
        "Ġdiffere",
        "nt"
      ],
      [
        "Ġw",
        "or"
      ],
      [
        "Ġt",
        "ra"
      ],
      [
        "'",
        "s"
      ],
      [
        "Ġt",
        "y"
      ],
      [
        "t",
        "ain"
      ],
      [
        "on",
        "d"
      ],
      [
        "r",
        "u"
      ],
      [
        "id",
        "ent"
      ],
      [
        "Ġinvestigat",
        "or"
      ],
      [
        "ig",
        "h"
      ],
      [
        "Ġa",
        "b"
      ],
      [
        "Ġpract",
        "ical"
      ],
      [
        "Ġd",
        "es"
      ],
      [
        "ar",
        "y"
      ],
      [
        "Ġth",
        "is"
      ],
      [
        "Ġin",
        "t"
      ],
      [
        "Ġthe",
        "se"
      ],
      [
        "st",
        "em"
      ],
      [
        "ic",
        "i"
      ],
      [
        "Ġre",
        "ad"
      ],
      [
        "f",
        "f"
      ],
      [
        "Ġu",
        "nd"
      ],
      [
        "Ġsy",
        "stem"
      ],
      [
        "at",
        "her"
      ],
      [
        "p",
        "pe"
      ],
      [
        "ct",
        "ion"
      ],
      [
        "Ġy",
        "ou"
      ],
      [
        "Ġcon",
        "t"
      ],
      [
        "p",
        "t"
      ],
      [
        "i",
        "ble"
      ],
      [
        "Ġsu",
        "b"
      ],
      [
        "Ġa",
        "d"
      ],
      [
        "il",
        "ity"
      ],
      [
        "at",
        "ter"
      ],
      [
        "<",
        "|"
      ],
      [
        "|",
        ">"
      ],
      [
        "Ġso",
        "cial"
      ],
      [
        "a",
        "ch"
      ],
      [
        "pe",
        "ct"
      ],
      [
        "Ġpro",
        "du"
      ],
      [
        "Ġ",
        "ent"
      ],
      [
        "ppe",
        "ar"
      ],
      [
        "Ġ",
        "T"
      ],
      [
        "ic",
        "ular"
      ],
      [
        "Ġpart",
        "icular"
      ],
      [
        "ver",
        "y"
      ],
      [
        "p",
        "ort"
      ],
      [
        "ist",
        "ic"
      ],
      [
        "Ġha",
        "d"
      ],
      [
        "ic",
        "e"
      ],
      [
        "f",
        "ess"
      ],
      [
        "Ġpro",
        "fess"
      ],
      [
        "Ġgen",
        "er"
      ],
      [
        "Ġm",
        "eth"
      ],
      [
        "Ġmeth",
        "od"
      ],
      [
        "u",
        "st"
      ],
      [
        "Ġ",
        "W"
      ],
      [
        "at",
        "ic"
      ],
      [
        "Ġab",
        "out"
      ],
      [
        "Ġp",
        "res"
      ],
      [
        "Ġbe",
        "t"
      ],
      [
        "x",
        "t"
      ],
      [
        "Ġe",
        "m"
      ],
      [
        "Ġsom",
        "e"
      ],
      [
        "Ġinform",
        "ation"
      ],
      [
        "s",
        "on"
      ],
      [
        "Ġt",
        "r"
      ],
      [
        "Ġs",
        "er"
      ],
      [
        "Ġp",
        "l"
      ],
      [
        "ent",
        "s"
      ],
      [
        "Ġw",
        "ould"
      ],
      [
        "re",
        "et"
      ],
      [
        "r",
        "o"
      ],
      [
        "Ġa",
        "r"
      ],
      [
        "led",
        "ge"
      ],
      [
        "ut",
        "h"
      ],
      [
        "Ġw",
        "ere"
      ],
      [
        "c",
        "u"
      ],
      [
        "u",
        "ine"
      ],
      [
        "Ġgen",
        "uine"
      ],
      [
        "Ġr",
        "ather"
      ],
      [
        "w",
        "e"
      ],
      [
        "ou",
        "nt"
      ],
      [
        "Ġgener",
        "al"
      ],
      [
        "as",
        "s"
      ],
      [
        "Ġprofess",
        "ional"
      ],
      [
        "Ġ",
        "A"
      ],
      [
        "ere",
        "st"
      ],
      [
        "t",
        "ical"
      ],
      [
        "igh",
        "t"
      ],
      [
        "Ġund",
        "er"
      ],
      [
        "o",
        "k"
      ],
      [
        "in",
        "ed"
      ],
      [
        "Ġin",
        "te"
      ],
      [
        "Ġh",
        "is"
      ],
      [
        "Ġu",
        "n"
      ],
      [
        "se",
        "l"
      ],
      [
        "Ġp",
        "ur"
      ],
      [
        "Ġpr",
        "in"
      ],
      [
        "ble",
        "m"
      ],
      [
        "Ġpro",
        "blem"
      ],
      [
        "Ġre",
        "qu"
      ],
      [
        "Ġa",
        "m"
      ],
      [
        "Ġp",
        "er"
      ],
      [
        "Ġcomp",
        "le"
      ],
      [
        "Ġc",
        "l"
      ],
      [
        "Ġw",
        "e"
      ],
      [
        "ent",
        "ly"
      ],
      [
        "Ġc",
        "are"
      ],
      [
        "Ġf",
        "ound"
      ],
      [
        "Ġh",
        "e"
      ],
      [
        "ĠT",
        "h"
      ],
      [
        "f",
        "ore"
      ],
      [
        "Ġs",
        "c"
      ],
      [
        "Ġobserv",
        "ation"
      ],
      [
        "cu",
        "ment"
      ],
      [
        "ve",
        "l"
      ],
      [
        "t",
        "h"
      ],
      [
        "Ġwor",
        "k"
      ],
      [
        "Ġsystem",
        "atic"
      ],
      [
        "Ġdo",
        "cument"
      ],
      [
        "Ġfor",
        "m"
      ],
      [
        "Ġknow",
        "ledge"
      ],
      [
        "a",
        "ge"
      ],
      [
        "Ġst",
        "ud"
      ],
      [
        "ic",
        "t"
      ],
      [
        "or",
        "y"
      ],
      [
        "r",
        "ough"
      ],
      [
        "Ġin",
        "d"
      ],
      [
        "Ġp",
        "o"
      ],
      [
        "Ġ",
        "ident"
      ],
      [
        "Ġan",
        "al"
      ],
      [
        "on",
        "e"
      ],
      [
        "Ġcons",
        "id"
      ],
      [
        "Ġd",
        "ire"
      ],
      [
        "Ġwith",
        "out"
      ],
      [
        "Ġbet",
        "we"
      ],
      [
        "Ġbetwe",
        "en"
      ],
      [
        "Ġex",
        "per"
      ],
      [
        "p",
        "r"
      ],
      [
        "at",
        "son"
      ],
      [
        "a",
        "g"
      ],
      [
        "Ġinvestig",
        "ation"
      ],
      [
        "u",
        "n"
      ],
      [
        "Ġ",
        "H"
      ],
      [
        "it",
        "ion"
      ],
      [
        "p",
        "on"
      ],
      [
        "i",
        "ous"
      ],
      [
        "c",
        "ed"
      ],
      [
        "j",
        "ect"
      ],
      [
        "m",
        "ed"
      ],
      [
        "Ġcharacter",
        "istic"
      ],
      [
        "Ġwh",
        "ere"
      ],
      [
        "re",
        "t"
      ],
      [
        "t",
        "her"
      ],
      [
        "Ġn",
        "at"
      ],
      [
        "Ġor",
        "d"
      ],
      [
        "res",
        "s"
      ],
      [
        "v",
        "ant"
      ],
      [
        "Ġint",
        "erest"
      ],
      [
        "Ġp",
        "os"
      ],
      [
        "f",
        "ul"
      ],
      [
        "w",
        "n"
      ],
      [
        "Ġt",
        "im"
      ],
      [
        "Ġo",
        "wn"
      ],
      [
        "it",
        "ies"
      ],
      [
        "Ġdire",
        "ct"
      ],
      [
        "ĠW",
        "atson"
      ],
      [
        "i",
        "e"
      ],
      [
        "Ġcas",
        "e"
      ],
      [
        "Ġm",
        "ak"
      ],
      [
        "Ġs",
        "h"
      ],
      [
        "Ġ",
        "<|"
      ],
      [
        "v",
        "es"
      ],
      [
        "an",
        "g"
      ],
      [
        "Ġconsid",
        "er"
      ],
      [
        "o",
        "ok"
      ],
      [
        "ar",
        "d"
      ],
      [
        "he",
        "m"
      ],
      [
        "Ġo",
        "per"
      ],
      [
        "Ġprin",
        "ci"
      ],
      [
        "Ġcrim",
        "e"
      ],
      [
        "on",
        "g"
      ],
      [
        "med",
        "i"
      ],
      [
        "Ġc",
        "ity"
      ],
      [
        "Ġinvestigat",
        "ive"
      ],
      [
        "f",
        "t"
      ],
      [
        "Ġh",
        "um"
      ],
      [
        "Ġocc",
        "as"
      ],
      [
        "Ġhum",
        "an"
      ],
      [
        "Ġobser",
        "ver"
      ],
      [
        "c",
        "ess"
      ],
      [
        "Ġtim",
        "e"
      ],
      [
        "l",
        "ish"
      ],
      [
        "Ġth",
        "ough"
      ],
      [
        "re",
        "at"
      ],
      [
        "p",
        "ret"
      ],
      [
        "Ġinter",
        "pret"
      ],
      [
        "Ġtr",
        "uth"
      ],
      [
        "w",
        "ays"
      ],
      [
        "Ġth",
        "rough"
      ],
      [
        "Ġa",
        "v"
      ],
      [
        "ll",
        "ig"
      ],
      [
        "Ġty",
        "p"
      ],
      [
        "Ġo",
        "ther"
      ],
      [
        "Ġa",
        "ppear"
      ],
      [
        "ri",
        "b"
      ],
      [
        "ch",
        "n"
      ],
      [
        "Ġte",
        "chn"
      ],
      [
        "Ġs",
        "im"
      ],
      [
        "Ġh",
        "and"
      ],
      [
        "e",
        "l"
      ],
      [
        "Ġon",
        "ly"
      ],
      [
        "Ġim",
        "medi"
      ],
      [
        "Ġimmedi",
        "ate"
      ],
      [
        "er",
        "tain"
      ],
      [
        "Ġo",
        "ut"
      ],
      [
        "c",
        "y"
      ],
      [
        "Ġo",
        "ver"
      ],
      [
        "o",
        "om"
      ],
      [
        "Ġthe",
        "re"
      ],
      [
        "Ġr",
        "oom"
      ],
      [
        "ing",
        "s"
      ],
      [
        "in",
        "ary"
      ],
      [
        "Ġst",
        "reet"
      ],
      [
        "Ġpur",
        "p"
      ],
      [
        "Ġal",
        "ways"
      ],
      [
        "Ġa",
        "g"
      ],
      [
        "Ġav",
        "ail"
      ],
      [
        "Ġn",
        "o"
      ],
      [
        "Ġre",
        "l"
      ],
      [
        "Ġqu",
        "al"
      ],
      [
        "Ġbe",
        "fore"
      ],
      [
        "Ġin",
        "st"
      ],
      [
        "Ġcon",
        "c"
      ],
      [
        "Ġde",
        "g"
      ],
      [
        "Ġ",
        "L"
      ],
      [
        "Ġinte",
        "llig"
      ],
      [
        "Ġacc",
        "ount"
      ],
      [
        "Ġc",
        "o"
      ],
      [
        "ment",
        "s"
      ],
      [
        "te",
        "xt"
      ],
      [
        "Ġf",
        "ra"
      ],
      [
        "Ġcons",
        "ist"
      ],
      [
        "ical",
        "ly"
      ],
      [
        "le",
        "ct"
      ],
      [
        "Ġl",
        "ess"
      ],
      [
        "ra",
        "p"
      ],
      [
        "Ġstud",
        "y"
      ],
      [
        "Ġact",
        "iv"
      ],
      [
        "a",
        "p"
      ],
      [
        "Ġdet",
        "ail"
      ],
      [
        "in",
        "ation"
      ],
      [
        "e",
        "op"
      ],
      [
        "eop",
        "le"
      ],
      [
        "ond",
        "on"
      ],
      [
        "ĠL",
        "ondon"
      ],
      [
        "Ġex",
        "t"
      ],
      [
        "Ġpract",
        "ice"
      ],
      [
        "Ġty",
        "pe"
      ],
      [
        "Ġapp",
        "ro"
      ],
      [
        "Ġf",
        "ir"
      ],
      [
        "Ġ",
        "B"
      ],
      [
        "en",
        "e"
      ],
      [
        "Ġre",
        "f"
      ],
      [
        "are",
        "nt"
      ],
      [
        "Ġavail",
        "able"
      ],
      [
        "Ġvari",
        "ous"
      ],
      [
        "Ġsu",
        "s"
      ],
      [
        "in",
        "t"
      ],
      [
        "en",
        "s"
      ],
      [
        "Ġact",
        "ual"
      ],
      [
        "Ġpre",
        "c"
      ],
      [
        "n",
        "ce"
      ],
      [
        "im",
        "ate"
      ],
      [
        "ar",
        "s"
      ],
      [
        "ot",
        "h"
      ],
      [
        "Ġcon",
        "st"
      ],
      [
        "Ġle",
        "g"
      ],
      [
        "Ġm",
        "ind"
      ],
      [
        "Ġident",
        "if"
      ],
      [
        "i",
        "al"
      ],
      [
        "Ġex",
        "pl"
      ],
      [
        "Ġre",
        "g"
      ],
      [
        "Ġar",
        "r"
      ],
      [
        "Ġk",
        "ind"
      ],
      [
        "Ġp",
        "eople"
      ],
      [
        "vel",
        "op"
      ],
      [
        "Ġare",
        "as"
      ],
      [
        "Ġne",
        "w"
      ],
      [
        "Ġex",
        "am"
      ],
      [
        "Ġpos",
        "s"
      ],
      [
        "i",
        "p"
      ],
      [
        "re",
        "e"
      ],
      [
        "Ġa",
        "c"
      ],
      [
        "re",
        "d"
      ],
      [
        "Ġf",
        "e"
      ],
      [
        "ous",
        "ly"
      ],
      [
        "Ġpres",
        "ent"
      ],
      [
        "n",
        "ess"
      ],
      [
        "Ġde",
        "velop"
      ],
      [
        "Ġdes",
        "c"
      ],
      [
        "Ġappro",
        "ach"
      ],
      [
        "Ġfir",
        "st"
      ],
      [
        "v",
        "ed"
      ],
      [
        "at",
        "ive"
      ],
      [
        "Ġf",
        "o"
      ],
      [
        "et",
        "im"
      ],
      [
        "Ġof",
        "ten"
      ],
      [
        "am",
        "e"
      ],
      [
        "or",
        "d"
      ],
      [
        "an",
        "ces"
      ],
      [
        "ig",
        "n"
      ],
      [
        "Ġsu",
        "ff"
      ],
      [
        "Ġsom",
        "eth"
      ],
      [
        "Ġsometh",
        "ing"
      ],
      [
        "Ġth",
        "ose"
      ],
      [
        "Ġcon",
        "du"
      ],
      [
        "Ġord",
        "inary"
      ],
      [
        "Ġem",
        "ot"
      ],
      [
        "Ġcon",
        "f"
      ],
      [
        "ĠTh",
        "is"
      ],
      [
        "Ġen",
        "g"
      ],
      [
        "b",
        "er"
      ],
      [
        "Ġas",
        "s"
      ],
      [
        "Ġemot",
        "ional"
      ],
      [
        "Ġtra",
        "ined"
      ],
      [
        "it",
        "t"
      ],
      [
        "Ġintellig",
        "ence"
      ],
      [
        "Ġm",
        "atter"
      ],
      [
        "Ġcharacteristic",
        "s"
      ],
      [
        "r",
        "it"
      ],
      [
        "st",
        "ances"
      ],
      [
        "Ġwh",
        "en"
      ],
      [
        "Ġocc",
        "ur"
      ],
      [
        "al",
        "l"
      ],
      [
        "id",
        "e"
      ],
      [
        "Ġ",
        "S"
      ],
      [
        "Ġc",
        "ate"
      ],
      [
        "Ġdis",
        "c"
      ],
      [
        "Ġcate",
        "g"
      ],
      [
        "Ġf",
        "act"
      ],
      [
        "Ġh",
        "ow"
      ],
      [
        "Ġcomple",
        "x"
      ],
      [
        "Ġtyp",
        "es"
      ],
      [
        "Ġthe",
        "ore"
      ],
      [
        "Ġtheore",
        "tical"
      ],
      [
        "a",
        "v"
      ],
      [
        "Ġa",
        "bs"
      ],
      [
        "Ġp",
        "atter"
      ],
      [
        "Ġpatter",
        "n"
      ],
      [
        "Ġm",
        "ust"
      ],
      [
        "an",
        "is"
      ],
      [
        "etim",
        "es"
      ],
      [
        "e",
        "ars"
      ],
      [
        "Ġy",
        "ears"
      ],
      [
        "Ġapp",
        "arent"
      ],
      [
        "Ġsub",
        "ject"
      ],
      [
        "Ġte",
        "ll"
      ],
      [
        "ol",
        "og"
      ],
      [
        "Ġent",
        "ire"
      ],
      [
        "c",
        "um"
      ],
      [
        "Ġc",
        "ir"
      ],
      [
        "Ġcir",
        "cum"
      ],
      [
        "sel",
        "f"
      ],
      [
        "as",
        "t"
      ],
      [
        "Ġc",
        "or"
      ],
      [
        "Ġre",
        "p"
      ],
      [
        "Ġc",
        "hem"
      ],
      [
        "Ġsom",
        "etimes"
      ],
      [
        "Ġm",
        "ain"
      ],
      [
        "Ġex",
        "p"
      ],
      [
        "Ġdist",
        "r"
      ],
      [
        "Ġobserv",
        "ed"
      ],
      [
        "Ġqu",
        "est"
      ],
      [
        "Ġp",
        "u"
      ],
      [
        "b",
        "it"
      ],
      [
        "Ġ",
        "j"
      ],
      [
        "Ġf",
        "ind"
      ],
      [
        "Ġ",
        "M"
      ],
      [
        "ad",
        "e"
      ],
      [
        "Ġdet",
        "er"
      ],
      [
        "Ġsc",
        "ene"
      ],
      [
        "Ġprec",
        "ise"
      ],
      [
        "Ġle",
        "ft"
      ],
      [
        "og",
        "rap"
      ],
      [
        "Ġpurp",
        "ose"
      ],
      [
        "ograp",
        "h"
      ],
      [
        "Ġt",
        "est"
      ],
      [
        "Ġoper",
        "at"
      ],
      [
        "Ġs",
        "ur"
      ],
      [
        "Ġde",
        "m"
      ],
      [
        "Ġdis",
        "a"
      ],
      [
        "Ġentire",
        "ly"
      ],
      [
        "Ġha",
        "bit"
      ],
      [
        "Ġrequ",
        "ire"
      ],
      [
        "Ġcircum",
        "stances"
      ],
      [
        "en",
        "cy"
      ],
      [
        "Ġm",
        "ade"
      ],
      [
        "ul",
        "ation"
      ],
      [
        "ab",
        "ly"
      ],
      [
        "ar",
        "r"
      ],
      [
        "Ġor",
        "g"
      ],
      [
        "Ġdistr",
        "ict"
      ],
      [
        "u",
        "e"
      ],
      [
        "Ġt",
        "ak"
      ],
      [
        "Ġconsist",
        "ent"
      ],
      [
        "an",
        "s"
      ],
      [
        "Ġqual",
        "ity"
      ],
      [
        "or",
        "ies"
      ],
      [
        "Ġy",
        "our"
      ],
      [
        "Ġtra",
        "ces"
      ],
      [
        "Ġacc",
        "ur"
      ],
      [
        "Ġbe",
        "h"
      ],
      [
        "Ġcondu",
        "ct"
      ],
      [
        "Ġm",
        "ere"
      ],
      [
        "Ġb",
        "r"
      ],
      [
        "Ġim",
        "port"
      ],
      [
        "Ġmere",
        "ly"
      ],
      [
        "Ġan",
        "x"
      ],
      [
        "Ġu",
        "se"
      ],
      [
        "u",
        "ish"
      ],
      [
        "v",
        "ir"
      ],
      [
        "ing",
        "uish"
      ],
      [
        "Ġen",
        "vir"
      ],
      [
        "Ġdist",
        "inguish"
      ],
      [
        "Ġidentif",
        "y"
      ],
      [
        "Ġenvir",
        "on"
      ],
      [
        "Ġv",
        "is"
      ],
      [
        "Ġc",
        "le"
      ],
      [
        "h",
        "ip"
      ],
      [
        "Ġm",
        "ay"
      ],
      [
        "Ġcare",
        "ful"
      ],
      [
        "Ġcon",
        "ce"
      ],
      [
        "Ġe",
        "very"
      ],
      [
        "ut",
        "ion"
      ],
      [
        "Ġcateg",
        "ories"
      ],
      [
        "Ġc",
        "ol"
      ],
      [
        "it",
        "imate"
      ],
      [
        "Ġu",
        "pon"
      ],
      [
        "Ġl",
        "ar"
      ],
      [
        "Ġres",
        "ult"
      ],
      [
        "Ġman",
        "y"
      ],
      [
        "Ġvari",
        "et"
      ],
      [
        "Ġconsider",
        "able"
      ],
      [
        "iv",
        "es"
      ],
      [
        "Ġent",
        "er"
      ],
      [
        "y",
        "tical"
      ],
      [
        "Ġanal",
        "ytical"
      ],
      [
        "lish",
        "ed"
      ],
      [
        "Ġs",
        "ame"
      ],
      [
        "Ġc",
        "ertain"
      ],
      [
        "Ġt",
        "w"
      ],
      [
        "Ġfor",
        "g"
      ],
      [
        "ff",
        "ect"
      ],
      [
        "Ġnat",
        "ure"
      ],
      [
        "le",
        "vant"
      ],
      [
        "Ġne",
        "ver"
      ],
      [
        "ari",
        "ly"
      ],
      [
        "Ġorg",
        "anis"
      ],
      [
        "Ġat",
        "t"
      ],
      [
        "pl",
        "es"
      ],
      [
        "Ġdesc",
        "rib"
      ],
      [
        "t",
        "y"
      ],
      [
        "g",
        "est"
      ],
      [
        "Ġf",
        "ace"
      ],
      [
        "Ġl",
        "ook"
      ],
      [
        "i",
        "res"
      ],
      [
        "Ġof",
        "f"
      ],
      [
        "r",
        "op"
      ],
      [
        "Ġs",
        "it"
      ],
      [
        "st",
        "and"
      ],
      [
        "Ġcont",
        "in"
      ],
      [
        "Ġdeg",
        "ree"
      ],
      [
        "Ġc",
        "our"
      ],
      [
        "Ġw",
        "ays"
      ],
      [
        "al",
        "ly"
      ],
      [
        "ys",
        "is"
      ],
      [
        "Ġanal",
        "ysis"
      ],
      [
        "en",
        "se"
      ],
      [
        "Ġ",
        "very"
      ],
      [
        "Ġposs",
        "ible"
      ],
      [
        "Ġdisa",
        "ppear"
      ],
      [
        "Ġcon",
        "d"
      ],
      [
        "Ġh",
        "our"
      ],
      [
        "Ġimport",
        "ant"
      ],
      [
        "Ġacc",
        "um"
      ],
      [
        "Ġfra",
        "ud"
      ],
      [
        "o",
        "od"
      ],
      [
        "in",
        "ess"
      ],
      [
        "Ġpl",
        "ace"
      ],
      [
        "he",
        "re"
      ],
      [
        "if",
        "e"
      ],
      [
        "Ġprodu",
        "ced"
      ],
      [
        "et",
        "her"
      ],
      [
        "o",
        "c"
      ],
      [
        "Ġo",
        "b"
      ],
      [
        "Ġrequ",
        "ires"
      ],
      [
        "ations",
        "hip"
      ],
      [
        "Ġrel",
        "ationship"
      ],
      [
        "Ġs",
        "ign"
      ],
      [
        "Ġre",
        "li"
      ],
      [
        "ific",
        "ation"
      ],
      [
        "Ġpo",
        "int"
      ],
      [
        "o",
        "f"
      ],
      [
        "se",
        "qu"
      ],
      [
        "Ġg",
        "reat"
      ],
      [
        "Ġthem",
        "sel"
      ],
      [
        "Ġchem",
        "ical"
      ],
      [
        "Ġthemsel",
        "ves"
      ],
      [
        "Ġs",
        "k"
      ],
      [
        "Ġmain",
        "tain"
      ],
      [
        "Ġpro",
        "cess"
      ],
      [
        "Ġact",
        "ive"
      ],
      [
        "Ġprinci",
        "p"
      ],
      [
        "Ġh",
        "im"
      ],
      [
        "Ġsus",
        "pect"
      ],
      [
        "Ġtw",
        "o"
      ],
      [
        "Ġf",
        "am"
      ],
      [
        "in",
        "ce"
      ],
      [
        "Ġs",
        "ince"
      ],
      [
        "ru",
        "ct"
      ],
      [
        "i",
        "ence"
      ],
      [
        "Ġrec",
        "ently"
      ],
      [
        "Ġo",
        "pp"
      ],
      [
        "Ġsu",
        "pp"
      ],
      [
        "Ġcomm",
        "on"
      ],
      [
        "ar",
        "ly"
      ],
      [
        "ant",
        "s"
      ],
      [
        "iv",
        "en"
      ],
      [
        "or",
        "s"
      ],
      [
        "ur",
        "n"
      ],
      [
        "Ġcom",
        "b"
      ],
      [
        "Ġstreet",
        "s"
      ],
      [
        "Ġ",
        "ut"
      ],
      [
        "as",
        "on"
      ],
      [
        "Ġut",
        "ility"
      ],
      [
        "Ġdescrib",
        "ed"
      ],
      [
        "Ġim",
        "p"
      ],
      [
        "ab",
        "ility"
      ],
      [
        "an",
        "ge"
      ],
      [
        "e",
        "p"
      ],
      [
        "Ġdo",
        "es"
      ],
      [
        "for",
        "t"
      ],
      [
        "Ġunder",
        "stand"
      ],
      [
        "Ġre",
        "levant"
      ],
      [
        "Ġc",
        "li"
      ],
      [
        "it",
        "ions"
      ],
      [
        "ist",
        "ant"
      ],
      [
        "us",
        "er"
      ],
      [
        "end",
        "of"
      ],
      [
        "ass",
        "istant"
      ],
      [
        "endof",
        "text"
      ],
      [
        "a",
        "c"
      ],
      [
        "n",
        "er"
      ],
      [
        "c",
        "ond"
      ],
      [
        "n",
        "ot"
      ],
      [
        "Ġ",
        "est"
      ],
      [
        "Ġcan",
        "not"
      ],
      [
        "o",
        "st"
      ],
      [
        "or",
        "m"
      ],
      [
        "Ġe",
        "ffect"
      ],
      [
        "Ġgenuine",
        "ly"
      ],
      [
        "ce",
        "pt"
      ],
      [
        "Ġbe",
        "ing"
      ],
      [
        "Ġev",
        "en"
      ],
      [
        "Ġconc",
        "l"
      ],
      [
        "Ġdisappear",
        "ance"
      ],
      [
        "Ġnat",
        "ur"
      ],
      [
        "Ġenviron",
        "ment"
      ],
      [
        "Ġread",
        "ing"
      ],
      [
        "Ġcrim",
        "es"
      ],
      [
        "Ġatt",
        "ent"
      ],
      [
        "Ġpu",
        "b"
      ],
      [
        "Ġcomm",
        "un"
      ],
      [
        "Ġinv",
        "ol"
      ],
      [
        "Ġs",
        "ol"
      ],
      [
        "Ġit",
        "self"
      ],
      [
        "ici",
        "al"
      ],
      [
        "Ġde",
        "li"
      ],
      [
        "Ġoccas",
        "ion"
      ],
      [
        "Ġprecise",
        "ly"
      ],
      [
        "Ġte",
        "xt"
      ],
      [
        "Ġactiv",
        "ities"
      ],
      [
        "Ġimmediate",
        "ly"
      ],
      [
        "Ġcontin",
        "u"
      ],
      [
        "Ġw",
        "rit"
      ],
      [
        "Ġall",
        "ow"
      ],
      [
        "Ġsk",
        "ill"
      ],
      [
        "m",
        "e"
      ],
      [
        "h",
        "at"
      ],
      [
        "Ġse",
        "e"
      ],
      [
        "Ġdeter",
        "m"
      ],
      [
        "i",
        "ar"
      ],
      [
        "Ġw",
        "ay"
      ],
      [
        "Ġm",
        "is"
      ],
      [
        "Ġf",
        "ail"
      ],
      [
        "Ġdisc",
        "o"
      ],
      [
        "Ġexper",
        "im"
      ],
      [
        "Ġleg",
        "itimate"
      ],
      [
        "en",
        "ces"
      ],
      [
        "Ġm",
        "et"
      ],
      [
        "Ġf",
        "og"
      ],
      [
        "Ġre",
        "ason"
      ],
      [
        "t",
        "reet"
      ],
      [
        "Ġt",
        "end"
      ],
      [
        "ak",
        "er"
      ],
      [
        "Ġinterest",
        "ing"
      ],
      [
        "ĠB",
        "aker"
      ],
      [
        "ĠS",
        "treet"
      ],
      [
        "Ġenter",
        "pr"
      ],
      [
        "Ġprinci",
        "ples"
      ],
      [
        "Ġwh",
        "ether"
      ],
      [
        "Ġbe",
        "li"
      ],
      [
        "Ġbeli",
        "e"
      ],
      [
        "i",
        "ly"
      ],
      [
        "Ġconce",
        "al"
      ],
      [
        "Ġ",
        "C"
      ],
      [
        "Ġest",
        "ab"
      ],
      [
        "i",
        "le"
      ],
      [
        "it",
        "ut"
      ],
      [
        "Ġe",
        "ach"
      ],
      [
        "Ġsuff",
        "ici"
      ],
      [
        "a",
        "ir"
      ],
      [
        "on",
        "st"
      ],
      [
        "Ġsub",
        "sequ"
      ],
      [
        "Ġm",
        "ight"
      ],
      [
        "Ġser",
        "ious"
      ],
      [
        "Ġaccur",
        "ate"
      ],
      [
        "Ġ",
        "if"
      ],
      [
        "ic",
        "ult"
      ],
      [
        "Ġdiff",
        "icult"
      ],
      [
        "Ġforg",
        "er"
      ],
      [
        "te",
        "m"
      ],
      [
        "Ġactual",
        "ly"
      ],
      [
        "le",
        "ction"
      ],
      [
        "Ġre",
        "al"
      ],
      [
        "Ġcond",
        "itions"
      ],
      [
        "Ġs",
        "p"
      ],
      [
        "Ġwh",
        "ile"
      ],
      [
        "Ġcomple",
        "te"
      ],
      [
        "u",
        "res"
      ],
      [
        "Ġb",
        "us"
      ],
      [
        "Ġbus",
        "iness"
      ],
      [
        "i",
        "ol"
      ],
      [
        "Ġv",
        "iol"
      ],
      [
        "Ġv",
        "al"
      ],
      [
        "Ġquest",
        "ion"
      ],
      [
        "Ġcommun",
        "ic"
      ],
      [
        "Ġse",
        "cond"
      ],
      [
        "Ġf",
        "in"
      ],
      [
        "Ġe",
        "le"
      ],
      [
        "Ġat",
        "tem"
      ],
      [
        "Ġres",
        "pon"
      ],
      [
        "Ġhour",
        "s"
      ],
      [
        "Ġattem",
        "pt"
      ],
      [
        "re",
        "ct"
      ],
      [
        "Ġcor",
        "rect"
      ],
      [
        "Ġin",
        "s"
      ],
      [
        "Ġf",
        "ul"
      ],
      [
        "Ġres",
        "pect"
      ],
      [
        "Ġs",
        "et"
      ],
      [
        "os",
        "ition"
      ],
      [
        "Ġdetail",
        "s"
      ],
      [
        "Ġcli",
        "ent"
      ],
      [
        "l",
        "lect"
      ],
      [
        "Ġs",
        "a"
      ],
      [
        "ere",
        "nce"
      ],
      [
        "os",
        "es"
      ],
      [
        "Ġinte",
        "llect"
      ],
      [
        "e",
        "ver"
      ],
      [
        "Ġl",
        "ife"
      ],
      [
        "Ġhow",
        "ever"
      ],
      [
        "Ġres",
        "our"
      ],
      [
        "m",
        "es"
      ],
      [
        "ol",
        "mes"
      ],
      [
        "ĠH",
        "olmes"
      ],
      [
        "Ġu",
        "s"
      ],
      [
        "Ġh",
        "y"
      ],
      [
        "Ġin",
        "c"
      ],
      [
        "ere",
        "d"
      ],
      [
        "u",
        "nd"
      ],
      [
        "Ġm",
        "at"
      ],
      [
        "Ġprodu",
        "ce"
      ],
      [
        "Ġsit",
        "u"
      ],
      [
        "Ġ",
        "ir"
      ],
      [
        "ar",
        "m"
      ],
      [
        "ĠI",
        "n"
      ],
      [
        "Ġwor",
        "ld"
      ],
      [
        "Ġg",
        "iven"
      ],
      [
        "Ġdes",
        "k"
      ],
      [
        "Ġwe",
        "ll"
      ],
      [
        "Ġful",
        "ly"
      ],
      [
        "a",
        "cc"
      ],
      [
        "i",
        "qu"
      ],
      [
        "ent",
        "ial"
      ],
      [
        "Ġtechn",
        "iqu"
      ],
      [
        "Ġcomplex",
        "ity"
      ],
      [
        "in",
        "ing"
      ],
      [
        "Ġs",
        "ci"
      ],
      [
        "Ġb",
        "ook"
      ],
      [
        "Ġproblem",
        "s"
      ],
      [
        "Ġdistrict",
        "s"
      ],
      [
        "Ġenterpr",
        "ise"
      ],
      [
        "Ġaccount",
        "s"
      ],
      [
        "Ġe",
        "c"
      ],
      [
        "Ġwho",
        "se"
      ],
      [
        "Ġrec",
        "ord"
      ],
      [
        "i",
        "od"
      ],
      [
        "Ġper",
        "iod"
      ],
      [
        "at",
        "es"
      ],
      [
        "Ġcon",
        "v"
      ],
      [
        "ith",
        "er"
      ],
      [
        "a",
        "ces"
      ],
      [
        "i",
        "b"
      ],
      [
        "at",
        "h"
      ],
      [
        "Ġw",
        "al"
      ],
      [
        "Ġne",
        "ed"
      ],
      [
        "Ġal",
        "ter"
      ],
      [
        "Ġexper",
        "ience"
      ],
      [
        "Ġmak",
        "e"
      ],
      [
        "Ġwal",
        "k"
      ],
      [
        "al",
        "s"
      ],
      [
        "it",
        "ed"
      ],
      [
        "ing",
        "ly"
      ],
      [
        "il",
        "iar"
      ],
      [
        "Ġex",
        "pect"
      ],
      [
        "Ġen",
        "c"
      ],
      [
        "Ġoff",
        "icial"
      ],
      [
        "Ġa",
        "uth"
      ],
      [
        "pl",
        "ic"
      ],
      [
        "Ġdist",
        "in"
      ],
      [
        "Ġj",
        "ud"
      ],
      [
        "Ġbeh",
        "av"
      ],
      [
        "Ġtak",
        "en"
      ],
      [
        "at",
        "is"
      ],
      [
        "atis",
        "f"
      ],
      [
        "i",
        "ed"
      ],
      [
        "Ġcom",
        "e"
      ],
      [
        "Ġcons",
        "ci"
      ],
      [
        "ri",
        "ate"
      ],
      [
        "Ġrequire",
        "d"
      ],
      [
        "rop",
        "riate"
      ],
      [
        "Ġin",
        "f"
      ],
      [
        "Ġpro",
        "per"
      ],
      [
        "Ġfam",
        "iliar"
      ],
      [
        "Ġnatur",
        "al"
      ],
      [
        "ul",
        "ated"
      ],
      [
        "age",
        "ment"
      ],
      [
        "ag",
        "es"
      ],
      [
        "re",
        "g"
      ],
      [
        "Ġn",
        "um"
      ],
      [
        "ag",
        "ed"
      ],
      [
        "Ġthough",
        "t"
      ],
      [
        "Ġapparent",
        "ly"
      ],
      [
        "olog",
        "ical"
      ],
      [
        "Ġtechn",
        "ical"
      ],
      [
        "Ġattent",
        "ion"
      ],
      [
        "Ġmethod",
        "s"
      ],
      [
        "i",
        "our"
      ],
      [
        "Ġexam",
        "ination"
      ],
      [
        "Ġbehav",
        "iour"
      ],
      [
        "Ġp",
        "a"
      ],
      [
        "an",
        "cial"
      ],
      [
        "Ġle",
        "vel"
      ],
      [
        "Ġfin",
        "ancial"
      ],
      [
        "Ġn",
        "orm"
      ],
      [
        "Ġs",
        "atisf"
      ],
      [
        "Ġrep",
        "res"
      ],
      [
        "Ġref",
        "lect"
      ],
      [
        "ĠThe",
        "y"
      ],
      [
        "Ġdet",
        "ect"
      ],
      [
        "Ġmak",
        "es"
      ],
      [
        "Ġactiv",
        "ity"
      ],
      [
        "Ġexp",
        "ress"
      ],
      [
        "Ġwrit",
        "ten"
      ],
      [
        "r",
        "act"
      ],
      [
        "t",
        "ici"
      ],
      [
        "Ġan",
        "tici"
      ],
      [
        "Ġcomm",
        "itt"
      ],
      [
        "Ġvariet",
        "y"
      ],
      [
        "Ġsubsequ",
        "ent"
      ],
      [
        "Ġintellect",
        "ual"
      ],
      [
        "Ġantici",
        "p"
      ],
      [
        "Ġcommitt",
        "ed"
      ],
      [
        "l",
        "ic"
      ],
      [
        "Ġcriminal",
        "s"
      ],
      [
        "Ġn",
        "arr"
      ],
      [
        "r",
        "y"
      ],
      [
        "Ġob",
        "ject"
      ],
      [
        "Ġwith",
        "in"
      ],
      [
        "ĠM",
        "r"
      ],
      [
        "p",
        "ar"
      ],
      [
        "Ġf",
        "ie"
      ],
      [
        "ang",
        "ed"
      ],
      [
        "Ġfie",
        "ld"
      ],
      [
        "Ġconcl",
        "us"
      ],
      [
        "u",
        "p"
      ],
      [
        "Ġo",
        "ld"
      ],
      [
        "Ġocc",
        "up"
      ],
      [
        "Ġint",
        "o"
      ],
      [
        "Ġag",
        "ain"
      ],
      [
        "b",
        "acc"
      ],
      [
        "Ġc",
        "re"
      ],
      [
        "Ġto",
        "bacc"
      ],
      [
        "Ġinterpret",
        "ation"
      ],
      [
        "Ġfo",
        "ot"
      ],
      [
        "ograph",
        "y"
      ],
      [
        "Ġvis",
        "ual"
      ],
      [
        "Ġcol",
        "lection"
      ],
      [
        "Ġexperim",
        "ents"
      ],
      [
        "Ġinter",
        "se"
      ],
      [
        "Ġanx",
        "ious"
      ],
      [
        "Ġsuffici",
        "ent"
      ],
      [
        "e",
        "x"
      ],
      [
        "Ġs",
        "ound"
      ],
      [
        "Ġu",
        "p"
      ],
      [
        "ten",
        "s"
      ],
      [
        "Ġext",
        "ract"
      ],
      [
        "Ġsci",
        "ence"
      ],
      [
        "w",
        "or"
      ],
      [
        "Ġm",
        "or"
      ],
      [
        "Ġre",
        "port"
      ],
      [
        "in",
        "ter"
      ],
      [
        "Ġw",
        "inter"
      ],
      [
        "Ġs",
        "he"
      ],
      [
        "Ġsh",
        "ould"
      ],
      [
        "i",
        "or"
      ],
      [
        "m",
        "ost"
      ],
      [
        "Ġ",
        "er"
      ],
      [
        "Ġp",
        "ass"
      ],
      [
        "Ġm",
        "u"
      ],
      [
        "Ġal",
        "most"
      ],
      [
        "Ġcour",
        "se"
      ],
      [
        "Ġreli",
        "able"
      ],
      [
        "at",
        "ing"
      ],
      [
        "is",
        "ing"
      ],
      [
        "Ġb",
        "oth"
      ],
      [
        "ur",
        "ing"
      ],
      [
        "Ġen",
        "ough"
      ],
      [
        "Ġam",
        "ong"
      ],
      [
        "ar",
        "k"
      ],
      [
        "Ġad",
        "d"
      ],
      [
        "ang",
        "er"
      ],
      [
        "Ġad",
        "v"
      ],
      [
        "Ġh",
        "ist"
      ],
      [
        "th",
        "ing"
      ],
      [
        "Ġsim",
        "il"
      ],
      [
        "Ġf",
        "re"
      ],
      [
        "Ġse",
        "en"
      ],
      [
        "Ġas",
        "k"
      ],
      [
        "h",
        "ab"
      ],
      [
        "Ġc",
        "ause"
      ],
      [
        "Ġin",
        "k"
      ],
      [
        "Ġin",
        "hab"
      ],
      [
        "Ġapp",
        "ropriate"
      ],
      [
        "Ġcont",
        "ro"
      ],
      [
        "Ġmis",
        "s"
      ],
      [
        "Ġcontro",
        "ll"
      ],
      [
        "r",
        "ic"
      ],
      [
        "Ġm",
        "ent"
      ],
      [
        "Ġf",
        "ab"
      ],
      [
        "ll",
        "ow"
      ],
      [
        "Ġreg",
        "ular"
      ],
      [
        "Ġreg",
        "ard"
      ],
      [
        "Ġfab",
        "ric"
      ],
      [
        "Ġl",
        "ong"
      ],
      [
        "Ġthere",
        "fore"
      ],
      [
        "Ġjud",
        "ge"
      ],
      [
        "Ġnum",
        "ber"
      ],
      [
        "Ġc",
        "ould"
      ],
      [
        "Ġd",
        "anger"
      ],
      [
        "Ġinst",
        "ru"
      ],
      [
        "Ġabs",
        "ence"
      ],
      [
        "Ġdem",
        "and"
      ],
      [
        "Ġre",
        "ce"
      ],
      [
        "Ġind",
        "ic"
      ],
      [
        "ber",
        "ate"
      ],
      [
        "Ġdeli",
        "berate"
      ],
      [
        "us",
        "ual"
      ],
      [
        "Ġpres",
        "ence"
      ],
      [
        "Ġun",
        "usual"
      ],
      [
        "Ġappear",
        "s"
      ],
      [
        "Ġhabit",
        "s"
      ],
      [
        "it",
        "e"
      ],
      [
        "Ġh",
        "on"
      ],
      [
        "Ġpr",
        "im"
      ],
      [
        "Ġsu",
        "ch"
      ],
      [
        "f",
        "ect"
      ],
      [
        "g",
        "u"
      ],
      [
        "k",
        "e"
      ],
      [
        "o",
        "y"
      ],
      [
        "s",
        "ide"
      ],
      [
        "Ġmo",
        "d"
      ],
      [
        "Ġcomp",
        "osition"
      ],
      [
        "Ġappear",
        "ance"
      ],
      [
        "p",
        "ond"
      ],
      [
        "y",
        "ing"
      ],
      [
        "Ġs",
        "m"
      ],
      [
        "Ġm",
        "on"
      ],
      [
        "ve",
        "ment"
      ],
      [
        "ĠI",
        "t"
      ],
      [
        "Ġpro",
        "v"
      ],
      [
        "Ġexpl",
        "o"
      ],
      [
        "Ġfe",
        "at"
      ],
      [
        "Ġprincip",
        "al"
      ],
      [
        "n",
        "ing"
      ],
      [
        "Ġ",
        "ess"
      ],
      [
        "Ġg",
        "ood"
      ],
      [
        "Ġspe",
        "cial"
      ],
      [
        "Ġess",
        "ential"
      ],
      [
        "Ġth",
        "or"
      ],
      [
        "Ġsome",
        "w"
      ],
      [
        "Ġresour",
        "ces"
      ],
      [
        "reg",
        "ular"
      ],
      [
        "Ġthor",
        "ough"
      ],
      [
        "Ġd",
        "ra"
      ],
      [
        "Ġdra",
        "m"
      ],
      [
        "Ġag",
        "ents"
      ],
      [
        "Ġpub",
        "lished"
      ],
      [
        "Ġval",
        "ue"
      ],
      [
        "a",
        "im"
      ],
      [
        "Ġcl",
        "aim"
      ],
      [
        "Ġsome",
        "one"
      ],
      [
        "p",
        "oth"
      ],
      [
        "Ġhy",
        "poth"
      ],
      [
        "Ġhypoth",
        "es"
      ],
      [
        "Ġme",
        "ans"
      ],
      [
        "ac",
        "k"
      ],
      [
        "n",
        "e"
      ],
      [
        "Ġt",
        "ru"
      ],
      [
        "an",
        "e"
      ],
      [
        "il",
        "d"
      ],
      [
        "Ġde",
        "p"
      ],
      [
        "Ġle",
        "a"
      ],
      [
        "er",
        "ing"
      ],
      [
        "es",
        "e"
      ],
      [
        "Ġe",
        "arly"
      ],
      [
        "ĠTh",
        "ese"
      ],
      [
        "Ġsign",
        "ific"
      ],
      [
        "Ġele",
        "ments"
      ],
      [
        "Ġrespon",
        "se"
      ],
      [
        "i",
        "et"
      ],
      [
        "Ġ",
        "E"
      ],
      [
        "Ġd",
        "om"
      ],
      [
        "Ġagain",
        "st"
      ],
      [
        "l",
        "f"
      ],
      [
        "Ġv",
        "ol"
      ],
      [
        "pl",
        "oy"
      ],
      [
        "Ġdis",
        "gu"
      ],
      [
        "Ġem",
        "ploy"
      ],
      [
        "Ġper",
        "fect"
      ],
      [
        "Ġcle",
        "ar"
      ],
      [
        "Ġlar",
        "gest"
      ],
      [
        "Ġdisco",
        "ver"
      ],
      [
        "Ġbook",
        "s"
      ],
      [
        "Ġtobacc",
        "o"
      ],
      [
        "Ġdisgu",
        "ise"
      ],
      [
        "w",
        "ard"
      ],
      [
        "er",
        "cial"
      ],
      [
        "Ġapp",
        "li"
      ],
      [
        "Ġcomm",
        "ercial"
      ],
      [
        "Ġdevelop",
        "ed"
      ],
      [
        "Ġoperat",
        "ing"
      ],
      [
        "Ġresult",
        "s"
      ],
      [
        "Ġaccum",
        "ulated"
      ],
      [
        "Ġviol",
        "in"
      ],
      [
        "Ġtechniqu",
        "es"
      ],
      [
        "Ġfeat",
        "ures"
      ],
      [
        "Ġappli",
        "ed"
      ],
      [
        "Ġinvestigator",
        "s"
      ],
      [
        "Ġcare",
        "er"
      ],
      [
        "Ġprocess",
        "es"
      ],
      [
        "Ġle",
        "ad"
      ],
      [
        "Ġser",
        "ve"
      ],
      [
        "wor",
        "k"
      ],
      [
        "Ġdes",
        "per"
      ],
      [
        "Ġst",
        "ate"
      ],
      [
        "se",
        "m"
      ],
      [
        "Ġhist",
        "ory"
      ],
      [
        "om",
        "e"
      ],
      [
        "Ġdocument",
        "s"
      ],
      [
        "Ġpos",
        "ition"
      ],
      [
        "ar",
        "ch"
      ],
      [
        "ur",
        "b"
      ],
      [
        "Ġpo",
        "st"
      ],
      [
        "Ġsuff",
        "ering"
      ],
      [
        "Ġde",
        "al"
      ],
      [
        "Ġord",
        "er"
      ],
      [
        "Ġeffect",
        "ive"
      ],
      [
        "Ġmu",
        "ch"
      ],
      [
        "Ġw",
        "ish"
      ],
      [
        "Ġcon",
        "text"
      ],
      [
        "Ġha",
        "pp"
      ],
      [
        "ort",
        "un"
      ],
      [
        "Ġdem",
        "onst"
      ],
      [
        "Ġopp",
        "ortun"
      ],
      [
        "Ġdemonst",
        "r"
      ],
      [
        "d",
        "en"
      ],
      [
        "Ġc",
        "ap"
      ],
      [
        "Ġd",
        "ays"
      ],
      [
        "Ġbe",
        "g"
      ],
      [
        "ib",
        "ility"
      ],
      [
        "ou",
        "se"
      ],
      [
        "Ġbelie",
        "ve"
      ],
      [
        "Ġman",
        "ner"
      ],
      [
        "Ġconsider",
        "ably"
      ],
      [
        "Ġsimil",
        "ar"
      ],
      [
        "k",
        "now"
      ],
      [
        "Ġth",
        "ings"
      ],
      [
        "Ġp",
        "ol"
      ],
      [
        "Ġk",
        "e"
      ],
      [
        "Ġfre",
        "qu"
      ],
      [
        "n",
        "al"
      ],
      [
        "Ġad",
        "m"
      ],
      [
        "i",
        "ent"
      ],
      [
        "Ġa",
        "w"
      ],
      [
        "in",
        "k"
      ],
      [
        "er",
        "ate"
      ],
      [
        "Ġre",
        "ve"
      ],
      [
        "od",
        "u"
      ],
      [
        "Ġacc",
        "ident"
      ],
      [
        "Ġinform",
        "ative"
      ],
      [
        "Ġprin",
        "t"
      ],
      [
        "Ġmak",
        "ing"
      ],
      [
        "Ġfe",
        "el"
      ],
      [
        "Ġanx",
        "iet"
      ],
      [
        "Ġdistinguish",
        "ing"
      ],
      [
        "Ġwalk",
        "ed"
      ],
      [
        "Ġinhab",
        "it"
      ],
      [
        "Ġcontroll",
        "ed"
      ],
      [
        "Ġa",
        "f"
      ],
      [
        "ou",
        "n"
      ],
      [
        "Ġf",
        "und"
      ],
      [
        "ct",
        "ive"
      ],
      [
        "Ġl",
        "im"
      ],
      [
        "qu",
        "ir"
      ],
      [
        "Ġinter",
        "v"
      ],
      [
        "Ġar",
        "t"
      ],
      [
        "Ġcl",
        "ose"
      ],
      [
        "Ġcl",
        "ass"
      ],
      [
        "Ġsc",
        "hem"
      ],
      [
        "rib",
        "ut"
      ],
      [
        "Ġconst",
        "itut"
      ],
      [
        "Ġfo",
        "llow"
      ],
      [
        "Ġpattern",
        "s"
      ],
      [
        "Ġd",
        "uring"
      ],
      [
        "Ġne",
        "cess"
      ],
      [
        "Ġdevelop",
        "ment"
      ],
      [
        "Ġhapp",
        "en"
      ],
      [
        "h",
        "istic"
      ],
      [
        "n",
        "ed"
      ],
      [
        "Ġ",
        "ill"
      ],
      [
        "Ġs",
        "op"
      ],
      [
        "al",
        "th"
      ],
      [
        "st",
        "er"
      ],
      [
        "Ġoccas",
        "ional"
      ],
      [
        "Ġsop",
        "histic"
      ],
      [
        "in",
        "c"
      ],
      [
        "Ġ",
        "N"
      ],
      [
        "g",
        "gest"
      ],
      [
        "Ġsu",
        "ggest"
      ],
      [
        "i",
        "end"
      ],
      [
        "is",
        "ion"
      ],
      [
        "Ġfr",
        "iend"
      ],
      [
        "iv",
        "ed"
      ],
      [
        "are",
        "d"
      ],
      [
        "Ġun",
        "c"
      ],
      [
        "Ġleg",
        "al"
      ],
      [
        "ot",
        "her"
      ],
      [
        "Ġnorm",
        "al"
      ],
      [
        "Ġfrequ",
        "ency"
      ],
      [
        "e",
        "ll"
      ],
      [
        "Ġex",
        "ist"
      ],
      [
        "ual",
        "ly"
      ],
      [
        "Ġhon",
        "est"
      ],
      [
        "m",
        "p"
      ],
      [
        "is",
        "ation"
      ],
      [
        "it",
        "ation"
      ],
      [
        "Ġm",
        "ed"
      ],
      [
        "Ġm",
        "us"
      ],
      [
        "Ġl",
        "ab"
      ],
      [
        "Ġrec",
        "ent"
      ],
      [
        "pr",
        "odu"
      ],
      [
        "Ġroom",
        "s"
      ],
      [
        "Ġac",
        "qu"
      ],
      [
        "Ġcol",
        "our"
      ],
      [
        "Ġaccum",
        "ulation"
      ],
      [
        "Ġfail",
        "ure"
      ],
      [
        "Ġsp",
        "ace"
      ],
      [
        "Ġreflect",
        "s"
      ],
      [
        "Ġpost",
        "ure"
      ],
      [
        "a",
        "ment"
      ],
      [
        "a",
        "cy"
      ],
      [
        "at",
        "ory"
      ],
      [
        "Ġre",
        "m"
      ],
      [
        "Ġon",
        "es"
      ],
      [
        "Ġl",
        "og"
      ],
      [
        "res",
        "pond"
      ],
      [
        "Ġgeneral",
        "ly"
      ],
      [
        "Ġfound",
        "ation"
      ],
      [
        "Ġsim",
        "p"
      ],
      [
        "Ġdetail",
        "ed"
      ],
      [
        "Ġcor",
        "respond"
      ],
      [
        "Ġbr",
        "ing"
      ],
      [
        "Ġgreat",
        "er"
      ],
      [
        "Ġsatisf",
        "ying"
      ],
      [
        "Ġanticip",
        "ated"
      ],
      [
        "Ġment",
        "al"
      ],
      [
        "Ġsm",
        "all"
      ],
      [
        "oun",
        "ter"
      ],
      [
        "at",
        "ors"
      ],
      [
        "Ġad",
        "vant"
      ],
      [
        "Ġeng",
        "agement"
      ],
      [
        "Ġoccur",
        "s"
      ],
      [
        "Ġuse",
        "ful"
      ],
      [
        "Ġlar",
        "ge"
      ],
      [
        "Ġir",
        "regular"
      ],
      [
        "Ġadv",
        "ance"
      ],
      [
        "Ġjudge",
        "ment"
      ],
      [
        "Ġsomew",
        "hat"
      ],
      [
        "Ġp",
        "op"
      ],
      [
        "Ġh",
        "ig"
      ],
      [
        "Ġem",
        "b"
      ],
      [
        "Ġhig",
        "her"
      ],
      [
        "Ġund",
        "erest"
      ],
      [
        "olog",
        "y"
      ],
      [
        "Ġsa",
        "w"
      ],
      [
        "Ġh",
        "er"
      ],
      [
        "Ġpro",
        "b"
      ],
      [
        "s",
        "w"
      ],
      [
        "Ġ",
        "ver"
      ],
      [
        "Ġan",
        "sw"
      ],
      [
        "Ġquest",
        "ions"
      ],
      [
        "ce",
        "ed"
      ],
      [
        "Ġe",
        "ither"
      ],
      [
        "on",
        "s"
      ],
      [
        "Ġev",
        "ents"
      ],
      [
        "Ġwe",
        "ight"
      ],
      [
        "Ġrepres",
        "ent"
      ],
      [
        "Ġ",
        "O"
      ],
      [
        "Ġa",
        "ch"
      ],
      [
        "Ġde",
        "f"
      ],
      [
        "ie",
        "w"
      ],
      [
        "Ġout",
        "side"
      ],
      [
        "Ġconst",
        "ruct"
      ],
      [
        "Ġestab",
        "lished"
      ],
      [
        "Ġach",
        "ie"
      ],
      [
        "a",
        "cial"
      ],
      [
        "i",
        "er"
      ],
      [
        "Ġt",
        "ense"
      ],
      [
        "Ġth",
        "ink"
      ],
      [
        "Ġm",
        "one"
      ],
      [
        "Ġh",
        "ier"
      ],
      [
        "Ġb",
        "urn"
      ],
      [
        "ou",
        "l"
      ],
      [
        "Ġf",
        "oul"
      ],
      [
        "ent",
        "r"
      ],
      [
        "om",
        "fort"
      ],
      [
        "st",
        "ri"
      ],
      [
        "id",
        "ences"
      ],
      [
        "ist",
        "s"
      ],
      [
        "ĠThe",
        "re"
      ],
      [
        "Ġg",
        "e"
      ],
      [
        "ra",
        "d"
      ],
      [
        "Ġspe",
        "ak"
      ],
      [
        "Ġr",
        "ig"
      ],
      [
        "Ġev",
        "idences"
      ],
      [
        "um",
        "erate"
      ],
      [
        "Ġen",
        "umerate"
      ],
      [
        "ort",
        "h"
      ],
      [
        "end",
        "ed"
      ],
      [
        "ust",
        "ion"
      ],
      [
        "Ġser",
        "ved"
      ],
      [
        "Ġpl",
        "ay"
      ],
      [
        "Ġwork",
        "s"
      ],
      [
        "Ġident",
        "ification"
      ],
      [
        "Ġoccas",
        "ions"
      ],
      [
        "Ġqual",
        "ities"
      ],
      [
        "Ġconc",
        "entr"
      ],
      [
        "Ġarr",
        "ives"
      ],
      [
        "Ġarr",
        "anged"
      ],
      [
        "Ġvariet",
        "ies"
      ],
      [
        "Ġcomb",
        "ustion"
      ],
      [
        "ĠC",
        "ertain"
      ],
      [
        "Ġcre",
        "ation"
      ],
      [
        "Ġmon",
        "ograph"
      ],
      [
        "Ġmone",
        "y"
      ],
      [
        "Ġhier",
        "arch"
      ],
      [
        "at",
        "a"
      ],
      [
        "Ġin",
        "ex"
      ],
      [
        "Ġd",
        "ata"
      ],
      [
        "ct",
        "s"
      ],
      [
        "Ġex",
        "tens"
      ],
      [
        "Ġle",
        "ar"
      ],
      [
        "ud",
        "son"
      ],
      [
        "Ġse",
        "em"
      ],
      [
        "Ġpl",
        "an"
      ],
      [
        "Ġwork",
        "ing"
      ],
      [
        "ĠH",
        "udson"
      ],
      [
        "Ġoper",
        "ations"
      ],
      [
        "Ġtyp",
        "ically"
      ],
      [
        "Ġpurp",
        "oses"
      ],
      [
        "Ġconf",
        "idence"
      ],
      [
        "itt",
        "ing"
      ],
      [
        "Ġorganis",
        "ation"
      ],
      [
        "here",
        "nt"
      ],
      [
        "ĠMr",
        "s"
      ],
      [
        "Ġold",
        "er"
      ],
      [
        "Ġinterse",
        "ction"
      ],
      [
        "Ġfund",
        "ament"
      ],
      [
        "Ġb",
        "rough"
      ],
      [
        "Ġcont",
        "ent"
      ],
      [
        "Ġstud",
        "ent"
      ],
      [
        "ress",
        "ed"
      ],
      [
        "Ġfra",
        "me"
      ],
      [
        "Ġbeh",
        "ind"
      ],
      [
        "Ġvis",
        "ible"
      ],
      [
        "Ġprincip",
        "le"
      ],
      [
        "Ġtend",
        "ency"
      ],
      [
        "Ġbrough",
        "t"
      ],
      [
        "Ġframe",
        "work"
      ],
      [
        "z",
        "on"
      ],
      [
        "Ġ",
        "zon"
      ],
      [
        "on",
        "om"
      ],
      [
        "Ġrec",
        "ur"
      ],
      [
        "Ġdesper",
        "ate"
      ],
      [
        "Ġzon",
        "es"
      ],
      [
        "onom",
        "ic"
      ],
      [
        "Ġinform",
        "ants"
      ],
      [
        "as",
        "ed"
      ],
      [
        "v",
        "ice"
      ],
      [
        "Ġm",
        "ult"
      ],
      [
        "Ġpro",
        "ceed"
      ],
      [
        "os",
        "s"
      ],
      [
        "ult",
        "ane"
      ],
      [
        "Ġdiffere",
        "nce"
      ],
      [
        "Ġser",
        "vice"
      ],
      [
        "Ġpur",
        "port"
      ],
      [
        "Ġsim",
        "ultane"
      ],
      [
        "Ġtell",
        "s"
      ],
      [
        "Ġsimultane",
        "ously"
      ],
      [
        "Ġw",
        "ind"
      ],
      [
        "Ġh",
        "arm"
      ],
      [
        "id",
        "ual"
      ],
      [
        "Ġpro",
        "port"
      ],
      [
        "Ġr",
        "ange"
      ],
      [
        "Ġobser",
        "ve"
      ],
      [
        "Ġind",
        "iv"
      ],
      [
        "ap",
        "s"
      ],
      [
        "Ġestab",
        "lish"
      ],
      [
        "Ġproport",
        "ion"
      ],
      [
        "Ġs",
        "ens"
      ],
      [
        "Ġs",
        "ense"
      ],
      [
        "Ġperson",
        "s"
      ],
      [
        "Ġme",
        "an"
      ],
      [
        "Ġass",
        "ess"
      ],
      [
        "Ġevery",
        "thing"
      ],
      [
        "Ġauth",
        "or"
      ],
      [
        "Ġdirect",
        "ed"
      ],
      [
        "Ġh",
        "ouse"
      ],
      [
        "Ġ",
        "D"
      ],
      [
        "w",
        "rit"
      ],
      [
        "Ġhand",
        "writ"
      ],
      [
        "Ġhypothes",
        "is"
      ],
      [
        "sem",
        "b"
      ],
      [
        "Ġhandwrit",
        "ing"
      ],
      [
        "h",
        "ing"
      ],
      [
        "ol",
        "d"
      ],
      [
        "Ġpre",
        "v"
      ],
      [
        "Ġthe",
        "ft"
      ],
      [
        "ic",
        "ed"
      ],
      [
        "Ġn",
        "ow"
      ],
      [
        "Ġst",
        "ruct"
      ],
      [
        "Ġcas",
        "ual"
      ],
      [
        "Ġse",
        "par"
      ],
      [
        "Ġdist",
        "urb"
      ],
      [
        "Ġbet",
        "ter"
      ],
      [
        "Ġpl",
        "aces"
      ],
      [
        "Ġind",
        "ep"
      ],
      [
        "Ġconsist",
        "ently"
      ],
      [
        "Ġsuspect",
        "ed"
      ],
      [
        "Ġsol",
        "ution"
      ],
      [
        "Ġsitu",
        "ations"
      ],
      [
        "Ġlea",
        "ve"
      ],
      [
        "Ġanxiet",
        "y"
      ],
      [
        "Ġlim",
        "ited"
      ],
      [
        "quir",
        "y"
      ],
      [
        "Ġindep",
        "end"
      ],
      [
        "d",
        "ict"
      ],
      [
        "Ġh",
        "igh"
      ],
      [
        "ere",
        "nt"
      ],
      [
        "Ġu",
        "nt"
      ],
      [
        "ra",
        "in"
      ],
      [
        "pp",
        "ed"
      ],
      [
        "Ġinvestig",
        "ate"
      ],
      [
        "Ġr",
        "ate"
      ],
      [
        "Ġr",
        "out"
      ],
      [
        "iff",
        "erent"
      ],
      [
        "og",
        "n"
      ],
      [
        "Ġdirect",
        "ly"
      ],
      [
        "Ġinterpret",
        "ed"
      ],
      [
        "Ġus",
        "ed"
      ],
      [
        "Ġsitu",
        "ation"
      ],
      [
        "Ġadm",
        "ir"
      ],
      [
        "Ġaf",
        "ter"
      ],
      [
        "Ġindiv",
        "idual"
      ],
      [
        "Ġev",
        "ent"
      ],
      [
        "Ġunderstand",
        "ing"
      ],
      [
        "Ġprim",
        "arily"
      ],
      [
        "Ġhappen",
        "ed"
      ],
      [
        "Ġm",
        "om"
      ],
      [
        "Ġl",
        "ed"
      ],
      [
        "Ġtra",
        "ining"
      ],
      [
        "ĠM",
        "y"
      ],
      [
        "Ġmom",
        "ent"
      ],
      [
        "Ġwh",
        "y"
      ],
      [
        "Ġinf",
        "erence"
      ],
      [
        "-",
        "-"
      ],
      [
        "Ġle",
        "t"
      ],
      [
        "Ġ",
        "~"
      ],
      [
        "ly",
        "ing"
      ],
      [
        "if",
        "ically"
      ],
      [
        "Ġspec",
        "ifically"
      ],
      [
        "pl",
        "ace"
      ],
      [
        "Ġsub",
        "st"
      ],
      [
        "Ġcommunic",
        "ation"
      ],
      [
        "Ġs",
        "our"
      ],
      [
        "an",
        "y"
      ],
      [
        "Ġb",
        "l"
      ],
      [
        "Ġres",
        "ol"
      ],
      [
        "Ġl",
        "oc"
      ],
      [
        "c",
        "rim"
      ],
      [
        "l",
        "ing"
      ],
      [
        "o",
        "ci"
      ],
      [
        "r",
        "ound"
      ],
      [
        "u",
        "nt"
      ],
      [
        "Ġc",
        "arr"
      ],
      [
        "Ġb",
        "ur"
      ],
      [
        "Ġf",
        "un"
      ],
      [
        "le",
        "ment"
      ],
      [
        "Ġre",
        "produ"
      ],
      [
        "Ġn",
        "av"
      ],
      [
        "Ġcom",
        "fort"
      ],
      [
        "Ġch",
        "o"
      ],
      [
        "Ġacc",
        "ord"
      ],
      [
        "Ġknow",
        "s"
      ],
      [
        "ri",
        "pt"
      ],
      [
        "ru",
        "ction"
      ],
      [
        "ĠA",
        "nd"
      ],
      [
        "ie",
[...]
